/**
  ******************************************************************************
  * @file    drive_int_data.c
  * @author  AST Embedded Analytics Research Platform
  * @date    Wed Jul 19 11:07:58 2023
  * @brief   AI Tool Automatic Code Generator for Embedded NN computing
  ******************************************************************************
  * @attention
  *
  * Copyright (c) 2023 STMicroelectronics.
  * All rights reserved.
  *
  * This software component is licensed by ST under Ultimate Liberty license
  * SLA0044, the "License"; You may not use this file except in compliance with
  * the License. You may obtain a copy of the License at:
  *                             www.st.com/SLA0044
  *
  ******************************************************************************
  */
#include "drive_int_data.h"
#include "ai_platform_interface.h"


AI_ALIGNED(32)
const ai_u64 s_drive_int_weights_array_u64[ 81056 ] = {
  0xd7d00fdf1c4b6209U, 0xe13d19e24513f44U, 0x1ca081a9bb1b2753U, 0xdfb4d90fab320fdbU,
  0x59f5181e6041f19eU, 0xd1e5b23e8230e0aU, 0xce662b01cda881adU, 0x7ec31892441f5cdbU,
  0x4727198a818213f7U, 0xcfb7cb21d6c04c6aU, 0x9155f15462ae3adU, 0x5b5f9ef2d7d46749U,
  0x92f6cf38e762aae0U, 0xed335321ad81ddcaU, 0xcdee61c39fad34dcU, 0x162ee4bbea11191aU,
  0xdd81b8e200deef15U, 0x354926267604042aU, 0x2ae6e74ae0253ef9U, 0x81a71817b99cd5e5U,
  0x2e2bd015e72a93f7U, 0xf087022ba5211a23U, 0x8105d0b9f2e2d22cU, 0x7f1ef8d6f3850de4U,
  0x3c94f8dcd044ecfbU, 0x92722fb12f0b27f6U, 0x7e0b1ce89d144501U, 0xe939a4f804c4cd7fU,
  0x108ecdf3fbda2f02U, 0x922d69c0e067c613U, 0x580e402b22bbc0e3U, 0xe3f460a12cf3c17fU,
  0xc6b4abd220cb0c0dU, 0xd228e9f01caef5c5U, 0xe2deb2a0515af447U, 0x1f32c27f5d02cb3fU,
  0xdc13d71140a5a48cU, 0x3f5c6bcee147e3ddU, 0xb4f01df254c50414U, 0xc48133d7cdfe06b4U,
  0xb27fef4d0e10f2cfU, 0x48ace3cc50ab61e2U, 0xcb173daffb5103ccU, 0x11443992c506c010U,
  0x72baa631a325040U, 0xe0b455109f2562c5U, 0xa47f4499efdcbcf4U, 0x9e1c040339d4174dU,
  0x5004a4e6fab0e5d1U, 0x254bd4be203ba081U, 0x593b89c736e4f2efU, 0x47ac0f608a5f68a2U,
  0x814a3bc1e0b6b670U, 0x131eaf2f93b7421aU, 0xffffe3d0ffffd5c1U, 0xffffc96b00000bd6U,
  0x15bfffffe01U, 0xffffb23e00002c11U, 0xffffef6d00001c5dU, 0xffffef77ffffee12U,
  0xffffba10ffffbd9bU, 0x14c800004131U, 0x1306001bee132df7U, 0x33d601ebe614edebU,
  0xde3ed08f50b4b10U, 0x3dfb151c0c1edcf1U, 0xf8c4031df01ae119U, 0x27ce0f21db0ce6f5U,
  0xebbdfe330f0c0ce9U, 0xff80b0ac728cbf8U, 0x30d2f7d1f9f0f60eU, 0x40c42106f530f10aU,
  0x32c8fdc128050e1aU, 0x3bcb1e39e612d1fbU, 0x2bdcf1d4392b2717U, 0x21bbdb1cd2230015U,
  0xe5dcf91039301700U, 0xf4d10c121c4c10ddU, 0x681d2f629ebed15U, 0xe8b1183be70400e6U,
  0xfad2f81b17532f31U, 0xcddf0cef17f5e7e7U, 0x2eb421d90d16201aU, 0xcb151e0df91127cfU,
  0x3ac7e903f115f615U, 0xda8157072826f2e5U, 0xefe4161b3923045cU, 0xbc4ffe84bf42100U,
  0x4af7461c513c352eU, 0xaa022a490714ddU, 0xecd227d2420aea4dU, 0x20cd5b55515c2cd4U,
  0xbc11e6455037e722U, 0x50a1ddf201404f5U, 0xfccb0af959290f01U, 0x1015f912382f1b01U,
  0xfab708dbf60d1236U, 0xdde3cb1d003100e1U, 0xedc3fa26e4153debU, 0xc3f4c9d3d903cc01U,
  0xe5e40a02050256f9U, 0x8109f5dfe3ccf01fU, 0xda1cf60bff2730f8U, 0xc90ae5f3eaeaee19U,
  0xfde6c22cf60918eeU, 0xacccfef3c6f1c050U, 0xf5d6f12cddef3c13U, 0xa912eafef1d0cb44U,
  0x21eaff3d1e421710U, 0xd8034122031ff848U, 0xf6e504250931300aU, 0xafccef00df0e0547U,
  0x2bee2016f73e3ff7U, 0xe1d1f9fbddfbfb4aU, 0x31ebe9330c4e3936U, 0xf2f4484e1d110b41U,
  0xcb2b370300eeef09U, 0xd35bcdc1e3c1cb6U, 0xc0122020241602b2U, 0xee3594b60b0008c0U,
  0xd7473c8506a9d2a9U, 0x133c96ca0ae5fbbeU, 0xd3223fe719c20cc1U, 0xf34a85b92e3912a6U,
  0xa31042162ac6dacdU, 0xaf79399472a26c4U, 0xcf535e9329b1a5d9U, 0x73fbab043ed45c8U,
  0xb73cf7cc0fda3ab9U, 0x20cbea22906de93U, 0xcb360e1819f6b3ecU, 0x1232cccc00ff2cacU,
  0xf32c178123c1cea9U, 0x323bdebd3be840c8U, 0x9af00fec18f72dffU, 0xf20be2a010312bfcU,
  0xc4ed0e41fa0c1eefU, 0xfee3fedef60c3426U, 0xd71935112d0bf519U, 0xeff1c4bb111d061bU,
  0x81e61bd722f11b1aU, 0xd3f9b2bc1b261240U, 0xaf1705f62a2e12e2U, 0xf213c5b516341b1cU,
  0x9afe2d173926f9e3U, 0xdb0fcfb32e0d4911U, 0xae2031e8d30624dfU, 0xc10ea38cfc06273bU,
  0x9700261b0a421a0bU, 0xd506d7a5f81b331aU, 0xafd6231322402403U, 0xf012c0930f011f35U,
  0x9107f807211c2724U, 0xa05d90327283530U, 0xa118261afd21fff2U, 0xe62bc99e070f1212U,
  0xc11411111e00f1d2U, 0xf830cba626063528U, 0x81fe09e8de0846eaU, 0xee21c2bc0aeb0a34U,
  0x8730f802da1a1fddU, 0xe800d78ad3ecd91dU, 0x9339f8f2d4230bf1U, 0xfe0d869dfd02db18U,
  0x9313efdbc42015fdU, 0x60fb199ea08cf2cU, 0x9e33ceffeb3122d0U, 0xf4f4dba5f722ec10U,
  0xe728f911ef3807dfU, 0xf21ed0aad705f722U, 0x142409ff2a007f21U, 0x12fd14022b2d1964U,
  0x3a01330a22fe44efU, 0xffcd4b2112be2109U, 0xee47c907d4fb412cU, 0x21a04fee7f12553U,
  0x40f9432efa4a4132U, 0xbdb43125f3ffd76U, 0xde3aff2d12375034U, 0xa27300e1b49fdecU,
  0x1d102903f22f1512U, 0x1e4e111232340afeU, 0x332ff61d1f453f0eU, 0x121ff3f18163a41U,
  0x211ffe091dea4ce7U, 0x1380de607490d5eU, 0xe741fffbec221a19U, 0xb4b17263b201043U,
  0x29c3f4cdf0ff1fe2U, 0xc80f1ce22de6d6b5U, 0xec1eedd1410421fU, 0x9e42129e9d9e6b8U,
  0x339f01181e2fe729U, 0xf1811e5bf105f2bcU, 0x17d1c1c31905162bU, 0xe3ebf6d80cf4f6e0U,
  0x33db0dd13e0046e2U, 0x5caf00bef00ebb1U, 0x4185e4f74ee50741U, 0x2191215ee91233a7U,
  0xdbef1fb54817ec3cU, 0x14bcf21a37f535d9U, 0xe997ecfe4b4b2719U, 0xdf85e011484e1789U,
  0xeca623dd5505e423U, 0xef810e32f74a479bU, 0xfee916dcff2a383dU, 0xe8fc1ef7181814ebU,
  0x2ed320fa49392d0bU, 0x781032134181ff0U, 0x8c60f2005ede338U, 0x22ca36140f3328f0U,
  0x321616082c364450U, 0xccf5d8ff37fd16e7U, 0xffca26340d313352U, 0xf991f838151ff4f1U,
  0x3bf10d132aeefd00U, 0xeda5431c21291de2U, 0x33d0e3c9641c244cU, 0xf5bf030f023c0ba2U,
  0x13c600c157fa2b08U, 0x986330c1c362894U, 0x14cb0ef3f7cb1f0eU, 0xea94f52ae930edb7U,
  0x469e0eb200f11e21U, 0x4ffb21fdd9d81ef8U, 0x4ebe3be35130912U, 0x28d515e223f8d806U,
  0x1dc4e6f5181aebf7U, 0x1ad2442c325d13f4U, 0xf8bb3c21123e4105U, 0x11dff50c3e1c37f3U,
  0xfd122ff5c18f621U, 0x54f4401c2d7f30e0U, 0xf3eafd01390ddc42U, 0x4ea330361b3d0df6U,
  0x12b7280e2f4b4d42U, 0x20ad0dee171d1fdbU, 0xf8a42c07effafd09U, 0xcc5f7e52a2c2c03U,
  0x29a520fc1400c2f5U, 0x1bbe0b17f51bfa00U, 0x20281818214b2f1cU, 0x1a8d17f9093d0b2bU,
  0x1523c708f93423f0U, 0xf3d5410a0c23f0fdU, 0xd6cbda17ec4a04c4U, 0xb638fff4ba08a6e1U,
  0x48ddf0342c761036U, 0x1699484e432ffeecU, 0x100af5f304213047U, 0x15f249382c120e07U,
  0xffbde3e8d721e812U, 0xc8ef1df9d31f05dcU, 0x35bb292b52763d7fU, 0x3df4390efc533c2cU,
  0x15df18fd212c5243U, 0x2251f42345d71bdU, 0x1ed8190e10ecf451U, 0xf6fae6fdf8011ee0U,
  0xfdd1f00f193412deU, 0xe3f5c8191efcede5U, 0x223d1e052c32390eU, 0xf4df2f04f42429ccU,
  0x31f01f26f9123d4fU, 0x98807e7111f2bc8U, 0xeb353aff5c591e4cU, 0x1800d9f6212657eeU,
  0xf85b334068482648U, 0x12cb181f3e5d4dcbU, 0xbeb354e302cff49U, 0xf9af301f615233c3U,
  0xbc13ff313366f1c5U, 0xf324c4e30817edf1U, 0xaf203e2dfe4ff4dcU, 0x15f381d208443bdfU,
  0xdef543e1eef7d13bU, 0xe445bede506924f9U, 0xfe22a9f267b3d0eU, 0x3fd1df0b090ef222U,
  0xfac7fbf9322b31e4U, 0x3bed14d62645502bU, 0x1caf1506e63ecf2cU, 0x5ce7242612e5f206U,
  0xffb5161547627f37U, 0x2c330c20237c1414U, 0x58f53ff0364f112aU, 0x5cf1462bed453106U,
  0xdb157fa0013285fU, 0x26f624441e334326U, 0x23f618fb3c3e170cU, 0x490119de156eea29U,
  0x15d60bf0e45022d2U, 0x5505c5ff47231537U, 0xfdb50ae8c7f7321aU, 0x7bf51734dcfd5feeU,
  0x24000a36faf929aaU, 0xc5bb1c03f8c82a43U, 0x2039ab16c6e648bbU, 0xcdda3febee2c034cU,
  0x3d88e4bef2fb3e3U, 0xeee72b47c7eda10aU, 0x18d0f4d339d733fbU, 0xd9123b3c17de1df0U,
  0x15ef29fbf84511ebU, 0x41954470e0dec46U, 0x3a2507fff5050823U, 0xfb11ff490c152b4cU,
  0x133021f7d6c387fU, 0x1eb80c1528443454U, 0x511334fa33271971U, 0xf313571f3c0cef51U,
  0x440dfc1a1959fc13U, 0x1a3d45ed0f03e1faU, 0xc8d0e4e42ead031cU, 0x9daab6eb2221f943U,
  0x6c90ce801c6edf7U, 0x81b5dd0dfbeeb347U, 0xf7dad0260eef2be5U, 0xf7e60715f431ee22U,
  0x3308f5b32cb506fdU, 0xc49cbbfc25ea3413U, 0x1ae200cb1ee2dc03U, 0xc0c8e123b1c91354U,
  0xf40d0941ed38055cU, 0xf01a42eaf9d10a05U, 0x11f6e0c622e7f307U, 0xd09ccbf50c48f824U,
  0x2052f2cd4011b0dU, 0x9f1133709d9f20aU, 0xa8fef7029d53f92dU, 0xb242f3f01ebfc53U,
  0xfcee1b0de3387ec6U, 0xcc1adfeef2e8c078U, 0xd5e932d9082371f6U, 0xe430d735e6f12201U,
  0xefbb06400e4866fcU, 0x28fc1a0c34070b04U, 0xd31343101d7f433cU, 0xe02b0a172a0b6fU,
  0x2bf93d3c5259290dU, 0xdbf9303d3c291cfbU, 0x6000a2a245b5656U, 0xe1721003c451033U,
  0xcd4646237e7d4554U, 0x219110167797013U, 0x302a081263432936U, 0xfc632b195d496e02U,
  0x3de0de23e47315bU, 0x10052f34203b6fd7U, 0x83f552f5f203920U, 0x3ee1d9eb36237f0dU,
  0x136280f0eeffbf1U, 0x441816ee431d00e8U, 0x325c241d37fc1fU, 0x2afa01ff073714f6U,
  0xe8363e333332f544U, 0xfa041ee64d6759feU, 0xed495d3d612a3208U, 0x68ed3be455653a01U,
  0xe73e66120626fffcU, 0xfa2e2cc9487d4aecU, 0xbe28162f225eeb28U, 0x1c440ddb56502425U,
  0xcd711cbb300705f9U, 0x41fcfaff4d2b5c08U, 0xdce73fc0b407e5c7U, 0x66f210eb453e070aU,
  0xc0fc0df424f35b15U, 0xcae5def71f180928U, 0xf4011c112be2042aU, 0xeef2ebf7ff19fe53U,
  0xdbf24f22c1f3331U, 0xe0203ed05422e4cU, 0x8bcb41e620d846e9U, 0xccd7f8cc0609162eU,
  0xadee34dc50f40ef8U, 0x12eb04c948301223U, 0xb1e61efe14351328U, 0xe1d07d61f47524fU,
  0x91f325ce0dea22e6U, 0xb7fbbdb71f21d029U, 0x81e807dddb19e3ccU, 0x1ef9ab8cedd90e3cU,
  0xc2e40b08e21b0c04U, 0xfeebeee0f6eef350U, 0xebffded0708304aU, 0xe60d3cfd42f8f581U,
  0x17c82ad60a21e2f4U, 0xe4a92022dc1210cfU, 0x28b2041afaf7f9e6U, 0xbf862326f4e718dfU,
  0x22194bff49033d39U, 0xfacd1f3f3f3b2db9U, 0xf9cb26305d38fe2dU, 0xe7d20e35051a37b1U,
  0x18be21fa3fe1f73bU, 0xc884281c2f0802f2U, 0xce0e1ec44c51402aU, 0x2be6e4e52df43aa5U,
  0xdadc32b02b39be55U, 0x6cefcec3af31aabU, 0x2fbd1edc26f7f531U, 0xe196351fd6f04705U,
  0x26ef27dd0f477ffaU, 0xe6302029d509dc6fU, 0x29d70a190d394922U, 0xe83148191c21c312U,
  0xf69738e2f8303620U, 0xe2244d330eed1017U, 0x5dc2cf61771381cU, 0xe406ea0f533d4770U,
  0x4d30f7e21d492644U, 0xfff3e70a09323524U, 0x28e11611584c3b0cU, 0x1ddf3c2c383930ceU,
  0xf4362a2e4c7f4c19U, 0x12af3df84852496dU, 0x4af24d1a40264829U, 0x33f634086258124cU,
  0x23f2fbd72113233fU, 0x293d080650472c40U, 0xf2a808ce1263f82eU, 0x5613e11908e70d1cU,
  0x22bb1bff30692a1fU, 0x55171af52e010c43U, 0x18811d121d3c1524U, 0x3bee34e6fd20e826U,
  0x37f95afa142fec26U, 0x58cc302c375e1b16U, 0x42a511fe032a4118U, 0x48fa030f1866fd0eU,
  0xe6bf04e32528273fU, 0x29c632ec0c593523U, 0xf0b63aecf41b0f31U, 0x27c614370233e835U,
  0xe3cbe92d300e01f0U, 0x58a10831336e2500U, 0xf2c2ff22f1f9f3f0U, 0x59e2dc151c37ff24U,
  0xef2b332e6150511U, 0xa4fbf90ed304c7efU, 0x10f38104e4f9eaffU, 0x9a101b05b7ee9debU,
  0x9ffa43ef606f6fcU, 0xce062311b4fbd3faU, 0x1a0eac15f4fef708U, 0xb4e41514c8f9d9eaU,
  0x62d81efeb0afe12U, 0x9afa05fdbdddcedfU, 0xc039227fdf9cb0fU, 0xe1fb170bbee7ddebU,
  0x16f5d22b0f2cf51fU, 0xb5f22826edefe2e2U, 0x1801e5d006f0010dU, 0xc4fe0d19dfe1ddd5U,
  0x38fad12520fcdd28U, 0xecf52e28e1d7e1dfU, 0x41e9cab815f33aeaU, 0xd7004a153130fb19U,
  0xe5a6fddcecf546efU, 0xebdf07f51ff11cf6U, 0xf39fe5140615e5f1U, 0xdcdcfe3f221704f5U,
  0xf9f420c730735d76U, 0xfefa630c4e585ad9U, 0x4db4402a1f3eef63U, 0x102141a6c1d39e9U,
  0xbffd7f0f074eee6bU, 0x1effee92f296708U, 0xe2014cee6841346aU, 0x591b370f682f2900U,
  0xf41072022b131705U, 0x192fdd31767a6e1eU, 0xfbfb23051e2bd402U, 0xec20ff2512ff29e1U,
  0x2fb130cfb753613U, 0xe8c5241a2523e417U, 0xf514f83923691d25U, 0x4fe26380609f626U,
  0x1135ec2d24fb5012U, 0x1a17cec4fa16020bU, 0x5e7f6414f662035U, 0xeddc59473a281743U,
  0xffafa4544554621U, 0x90c271c34282afbU, 0xceb1eec2e1b52fbU, 0x222ae224fa0c00e6U,
  0x1bf1f55d207f1567U, 0xb053e4124360e42U, 0xe5eef20df4371a15U, 0x341f2bdd2d2032f2U,
  0xd20eeb0beedd20f6U, 0xd152b4c7f926ae15U, 0xe1ca0ffd00124022U, 0xed2044f30c04fc40U,
  0x35215dc916161c18U, 0x37e5f9111a632e67U, 0x20820fa09eeeb35U, 0x12d611183c23080dU,
  0xbb45551e43271648U, 0xef02df3a14484e51U, 0x16202a293731ed1fU, 0x1b2147fd4043633aU,
  0xf0383501421af30fU, 0x9393d4f41324aU, 0xf02f14de33000105U, 0x3e2df8e80f7f5f25U,
  0xe9e0fdfce1f003e2U, 0x2d561cd01f0a4847U, 0xec29f816032ef8eaU, 0x301000837f7fd3bU,
  0xdd0d61fe8f1f809U, 0x9b9527e4da1ab046U, 0xef2ba0efec1e04e3U, 0xc4d2fc01b8f9b73bU,
  0xfb258513d305d115U, 0x81d6edfa9adeab10U, 0x2db7acfb0423fb1cU, 0xb3c8261dff06bd34U,
  0xec3ab8e40600f201U, 0xc1e7032bc701ba38U, 0xa2a8d0de00acee3U, 0xaed81909bbeec610U,
  0x31b3d42034f81ff7U, 0xbeb43903fe07e426U, 0x35fadff8fb32e728U, 0xc806320cecf6dceaU,
  0x26e7d729203bf00eU, 0xc8ff183afed2d308U, 0x1719170061f5f0eaU, 0x34323f3ff70a0634U,
  0x2033fe3dea61dad5U, 0x4bd81a131ee7295aU, 0xb542524e8f2b822U, 0x2de01e1118fb3e18U,
  0x113563157851fa3cU, 0x1118133e631d7f39U, 0xe96071f04200a900U, 0x3936351a4cf5121fU,
  0xeb23791a2408ad14U, 0x2031fef375202725U, 0xd33c6d1415ea0ce9U, 0x6730122c6ccc382eU,
  0x11493703262a890eU, 0x525ae90c70044d19U, 0xee4426d624e7b10eU, 0x6612e0c3472e1bfcU,
  0x7d02d1d00202f14U, 0xefc44e2032f71837U, 0x19fff87ff7634d13U, 0x5ea16eaf8200e2dU,
  0xe9ffeb0f93e331e7U, 0xe2fde8bcdc30c90aU, 0xacb1c3807171f49U, 0x41d12e2443211744U,
  0xfde0f02fd6410917U, 0xf7f9f9fd0a30ffddU, 0xd1c3e32284f440eaU, 0xed1bbbb0ed24d6fcU,
  0x28c21824e8e80634U, 0x29014d1b200f00f2U, 0xdbd10425e33b3afeU, 0x1d26f3ea0b23080fU,
  0xd4d6e8dfb40a0fcfU, 0xf423c9bfdffacaf1U, 0xece434e2fd17330bU, 0xffe8e2e0f2f0f91cU,
  0x20d214e8e8120fe1U, 0xe7e81be0ec0cebf3U, 0x2691e80c14f8f7efU, 0x2b2d2251203e4e9U,
  0x12eec92a38454a12U, 0xf61bdae1f519272eU, 0x2be7e629420039e6U, 0xe6d90a13143cf23aU,
  0xddc90cfbe4e6eff1U, 0xfc81153a3328f007U, 0x20154cec5d0a2909U, 0xea04ede729351f1bU,
  0x2be829f12d1f295aU, 0xeeb8ffe9215838d4U, 0x44b6f8e941ef3861U, 0xf6bd351403310aedU,
  0xfe0010ef3b063906U, 0xca0ee40f1630f2ddU, 0xe62235fc4843111aU, 0xfedc141e070021d8U,
  0x71e3b182508283fU, 0x5f2e5095d115ad9U, 0xe2223500470d3833U, 0xf41508f42f241e1bU,
  0xee2450114146323eU, 0xe009230c6a4e5022U, 0xe6287f15523ae82dU, 0x2f1cfc06533b5ff2U,
  0xc537410006131e1bU, 0xff2efdc83e280906U, 0xdb1929292236ec10U, 0x272002e846fd190dU,
  0xc2f709ffe2f4d7d1U, 0x2f08f4c93d1d3428U, 0x3cc120eff8f30308U, 0x52cc0120100ff5e7U,
  0x798f7bd00260408U, 0x42e61506f94ffef1U, 0x4811af6fcf7090eU, 0x11d9241e1e4302ffU,
  0x22b300d40b0eea1cU, 0x58cd320304ff09d2U, 0x10be07fa3726ee11U, 0x3de539250f281cccU,
  0xd8af6e2fde9ea16U, 0x36b5f710ec22fccdU, 0xfa99e4051c030ae5U, 0x2eeaff1a010917baU,
  0x2a50ccd350cf4eeU, 0x16f300eadd1703c9U, 0xf8a7ffc7f1dcf2e9U, 0x24e6ecd6d93c06daU,
  0x5d2d2eee0eceb04U, 0xec9dd8e004f8c7eaU, 0xf4ccb5e2f203fd0dU, 0xf18108f7ec1fe7f9U,
  0x2104ce31ed30ed23U, 0xf4d21511f804fa0dU, 0x21f1d1edfcf00509U, 0xe29fcdfffcf2d9f5U,
  0xfed3cde304f9ed02U, 0xd6ab0c19f8fbe4d8U, 0x10fbdb23090d0c27U, 0xfaae2002fe1bf9feU,
  0xe9cdc5ed02f7eaf0U, 0xdc8b03d7ea01dce5U, 0x2ac0d920f805eafeU, 0xe2a42019e70be8d3U,
  0xf2f0e225202f2243U, 0xee23907182106deU, 0xfffffa9dfffff958U, 0x20c8fffffb81U,
  0x1a6900001195U, 0xfffffe41ffffb90bU, 0xfffff5a3ffffd99eU, 0xfffffc44fffff5f7U,
  0xffffcd5fffffc37fU, 0xffffdf52fffff220U, 0xfffffff1ffffedddU, 0xffffd6c5fffff6a6U,
  0x309ffffcd00U, 0xffffe971ffffea74U, 0xfffff996ffffd62dU, 0xfffffa41ffffda21U,
  0xfffff4baffffe986U, 0x161ffffffceU, 0x282bc402ff18240eU, 0x1d221b13230b333cU,
  0x162e0d4835fe172aU, 0x242f251f3a230433U, 0xe0fae4ea09e01009U, 0x915f0ff331d22eeU,
  0xcfd0736fde61017U, 0xdc372fe35119ec21U, 0xdef3020ef8dcf5bdU, 0xdef5b9cf24dce9caU,
  0xec03c6f0dfd21bebU, 0xd8e4fedf20f2d8f7U, 0x1e1e959e9afa0e27U, 0xf50a031207f51815U,
  0x22807200309d8faU, 0xd26ea15341e0b1bU, 0xdaf3bfadd6dde402U, 0xbbfbff03e60dfeddU,
  0x709f9dcbbfdc601U, 0xe713cbe714f708d8U, 0xd4aadbed1fefbdeaU, 0x8e94afddedd4c8c0U,
  0xd20df7dabac10b18U, 0xdce91cbbfcc6f693U, 0x2df18192c6fa2a2aU, 0xe1e1050afdf7060eU,
  0xeafaf705dc46ce00U, 0x1240cd06c9dd14e1U, 0xd7feafb1eef20af7U, 0xe5292603c915e30fU,
  0xf9f916e1e3f592dbU, 0x2e11b21afcff13e8U, 0xfed7f5d8fa14e3fbU, 0xc1faf0ccdee2f7ebU,
  0xfdccf6f5a4d4b4efU, 0xbdbebc912d10fb8U, 0xeb1bfa6c0f9d50cU, 0xdb34c9d6e8c6fae8U,
  0xdce1fedac3f89fc8U, 0x14cff1f9feacdbceU, 0x25f4a6b4d4e902d7U, 0xef0611e0fc1dee00U,
  0x28d401fae5dcc1e7U, 0xf8ebf1075227f4d7U, 0x33eef8e0e20802ffU, 0x12e6e50a030622e8U,
  0xc1ebc22fdebbd22U, 0x1d03f73026f9ee0cU, 0xcbcaf8d81091a23U, 0xd0100e5eb0be3feU,
  0xd0e0eed6f6f6c0b8U, 0x19e7d000c5c012d3U, 0xf0d9b5b69b280bf4U, 0x161822dfe31de51fU,
  0xee723000029b705U, 0x30ffddff37eff1eeU, 0xaf7ccc59e0df007U, 0x1005fb1d0afa0dU,
  0x20ef22f300debc1aU, 0x41e1e7f92ad4eee5U, 0x2c0691dfd5181325U, 0x1a1bfce503f5e222U,
  0x1cfaf5f125eefbe2U, 0x25070208fcd9e81eU, 0xb139de3c128111aU, 0x3e28221314202940U,
  0x21090b14280aeb2eU, 0x2b0cec2521180217U, 0x619c8f6a820130aU, 0x331a3139141dfa0eU,
  0x194014060000e11fU, 0xe07141533fcf725U, 0xf4d3d2f4e5e9f6dfU, 0xc209bfe61fe40af4U,
  0xe90f12dcba07b2e9U, 0x25f1db12eed3f8ecU, 0xfed8b0c5c91b091eU, 0xfbe91303ff051314U,
  0xeef91edb1227bcefU, 0x361ff530e8010ff6U, 0x120abbd5db0f1019U, 0x61d180e082834U,
  0x1324313b2219ae07U, 0x391aecfc2336fc11U, 0xc95c2a99f0ffe12U, 0xcee5d3b5e50bd1e7U,
  0xb9e8f5b5af0eeab8U, 0xfee6b8e6f8aafabeU, 0x15bf819898ee3004U, 0xedfd060b0af0f814U,
  0xe1ce10c2132cfbe5U, 0x1dece1ddbcdc25e0U, 0x25e2c1b993ee1b1cU, 0x2250b1814080a06U,
  0xe9253109032ccf03U, 0x29351002d607f10eU, 0xffbcbdbe9e1c25fbU, 0xb2dabdd4caf803cdU,
  0xcadc01bcd704f0c6U, 0xb04b3dcfabd13ddU, 0x13afa5aeb20b2d19U, 0xf0f5f9d5f3f61101U,
  0xc2e8dfa9e90ce9eeU, 0xc0bf4c0be2edcU, 0x16e4d4f1c80c0413U, 0x2429f10a2f0c13f4U,
  0x60e0ffd20f2efedU, 0x25222600e608ee17U, 0xea9316fffc17f8e2U, 0xd71be3a6d2efad81U,
  0x6dc31d7dc9e07d1U, 0xeac3e9bb0c0403ecU, 0x7c9ef13001a2bd9U, 0x1adfd4d806fcf7baU,
  0x2c2ff5e01fd1fefdU, 0x11bd45ed18f7e7efU, 0x17dabe013be52118U, 0x31e5d9f1490afbd2U,
  0xdb46a0eb23241d59U, 0xc802441deb109c08U, 0xe6c80cfaec1fe3e2U, 0xfc42f4d3e2e1beabU,
  0xc8d611c80ed008dbU, 0x2c95e2f60af1000eU, 0x30dfc25de0a1e0fU, 0x16e5fbe3460f08b0U,
  0x4118daed2be0fa05U, 0xedb014e946eec6eeU, 0xfd0eb0014f0fde5U, 0x19c6de013ff811eaU,
  0x7339bfc06180b35U, 0xa5ea3efbe71f8506U, 0x4f901fe131613eeU, 0x39fc08f2291fecf7U,
  0x54137e416d41b2dU, 0x5d02d110ae9e80fU, 0xe20f08151bf30dc4U, 0xeac0f2fc43dde0c0U,
  0x2c0dfaf8f9db0023U, 0xcedb3ee23517cff6U, 0xe8effd1a00f508ceU, 0xf5c8baf03ce1ead4U,
  0xd10ccbe5eef4f823U, 0x81d823f7e93db814U, 0x2e20f5ebc4130801U, 0xc50f20f5bb1e2902U,
  0xe60a29f8f80d23d4U, 0xf32be249001a2712U, 0xe6051037d3221912U, 0x312f1ded90dd4e1U,
  0x23e9f00cd1fdfed2U, 0xe3d5010623f10eU, 0xeccf1226eb22b0e4U, 0xe2f8f708d4c4d9efU,
  0xfae7ddeae709f5deU, 0xa5e5f3e8ffedf3f2U, 0x27461b04241964ebU, 0x1c382f42ff133530U,
  0xe86dd32558383a3cU, 0xb051634c07340631U, 0xd130e27c0210cf9U, 0x212515180ee2e717U,
  0x1214f2e527221dedU, 0xdb051ff4f905f827U, 0xe3feef182d0ae6b9U, 0xc00abc0fc7cdf1e2U,
  0xd2fee3e3d0dce4c6U, 0xc49ad7e2dee61b13U, 0xf21f311ad6e310cdU, 0x2e15164f0a0cf20fU,
  0x2356c333fa1a3f13U, 0x8f082dea1932dd24U, 0x250d0518d2e7ded7U, 0x32052e1211d5d604U,
  0xef2bc204fbf7fb1eU, 0xd913dccdfaf70a21U, 0xe2ebe20a08cad0daU, 0xd40900df8cfbfaccU,
  0xc8ee45e3d3d1e081U, 0xedd49de2c2cf0cddU, 0xf0e7d2ebc71afd10U, 0x12ec191e0e19211aU,
  0x1ff02111023191fU, 0x91b2510f40deb2fU, 0xfcedebbcd1051c01U, 0x1005ff20e8f0081fU,
  0x2def615de24030eU, 0x81bf3290f3c0916U, 0xebdfecf5d6e4ecf2U, 0xf9fcdbfce2fae3e7U,
  0x12e5f5dedef041c8U, 0xce9bfde1ae900dbU, 0x1912b6e0ef0e2b39U, 0x351633020a0e1108U,
  0xe24ef09242fdf07U, 0xdd23092ae7ff1333U, 0x80e8db9c4fe0e1fU, 0xf6091bf5e42d1b31U,
  0xeb051bfd04f6d80fU, 0x1515d306eefd0df2U, 0xfae0bcdcaf02d91dU, 0xc81301ccd1fed9e6U,
  0xe2ccf2c0c1c920e3U, 0x9cdc6dd08c500b3U, 0xffce6d1d80925feU, 0xae7ea2d0e1eff27U,
  0xd01e6f7132b0308U, 0xea0c0e07d3030718U, 0x24fd9082960e2b12U, 0xec121ae8242c1b22U,
  0x1f1912fe040dbd0aU, 0xe21f605dff51508U, 0xf9f7a4b08106f5f1U, 0xf90affe506f3f5e4U,
  0xf1f105d0dd0ceae2U, 0x17e600d12ee810d6U, 0x481af6ded4042921U, 0xe0a260cfb2e1d1dU,
  0x14181b12170bea31U, 0x2217080f2740faf7U, 0xb2d0b02d223fa21U, 0x1b183427102c0e13U,
  0x3b090f0c1807f1f1U, 0x273204fc3a0812ffU, 0xe7272c260e2ff90fU, 0x1a3434260c11e4f2U,
  0x1cf1fbf30d03390dU, 0xe828fbe53f191427U, 0x709f60922d726ebU, 0x18f8f80d25fa1616U,
  0x224c8000d24fb39U, 0xeb133023151bb728U, 0xeceffd141df5e7bdU, 0xfa020ac414d3d9e6U,
  0xdcfcd1f008e605fcU, 0xe3e8eae00106f0f8U, 0xbc0f201e1729d6bdU, 0xe81211cae8b9d29eU,
  0xe4ccc7daeaba3f04U, 0xb0bbf8a532df130fU, 0xb1e8faf02ec9d2abU, 0xcbb5d5d502dddab0U,
  0xf5f7dee5cfcdd91bU, 0xabd4fbbcece2c1c4U, 0xc8aa0cf90aeaa0acU, 0xd3e8d2a5da9fa6bbU,
  0x8fc5cda2acc5efdbU, 0xe2bec2b6dcd3f3c9U, 0xabd2140c121d81b3U, 0xb73a0ca88bb194a9U,
  0xb991ddcdb99113b0U, 0xe1b2d9b501e822fdU, 0xde80f018d2f1c0dU, 0x5291d35dc0bf201U,
  0xe3d7f9ee18cf2ce5U, 0xf2fbe60b0e21263fU, 0xe611f8fd92fcfae7U, 0xea0d1edbd507010cU,
  0xce9301009eb2fe4U, 0xd5dae9faf8f1ff18U, 0xcb0a0612df07d2ddU, 0xcffb09dcd2d5e20bU,
  0xffd2f8d0ccc810d7U, 0xebf7e7072afc1223U, 0xe14fb0e910e0b1bU, 0x2b284a16c80ff7f7U,
  0xe7011af82a080cf1U, 0x1207d123e8ef2d13U, 0xfb27db098926d00aU, 0x171f33ee0107e127U,
  0xf4eb34e80ef3f6c5U, 0x21f0d32d11eb1f22U, 0xff040029d2fbdaeaU, 0xe91616e102f20c03U,
  0x3f60d0204f910cdU, 0xbd8b8e5021103faU, 0xf91116f3bd1bf9faU, 0x311b1c0ffcfcf80eU,
  0xf92816ef1e3016fcU, 0x9eaff1ee814fc28U, 0x1d3806e8813a1e1eU, 0x2e2b13e80606fd04U,
  0x7fe3a0e252614d4U, 0x27f1f90c080229efU, 0x14d071dde21eeefU, 0x190005dfe4280112U,
  0x2d2d17fd2bd614d4U, 0xf501f0e1fbf71af0U, 0x23f2d6d5e9f60d38U, 0xc6290912fd18f818U,
  0x1172626f808ebf4U, 0x4f32f8feb11e1b16U, 0x340ad7e7b8450b5aU, 0xf7283f2c0c0d272cU,
  0x1f31c0e18f923f7U, 0x6a2900fc28293b0aU, 0x152cf7f2a43b2550U, 0x1c3b471d04271922U,
  0x2b0c30002b3518d9U, 0x2d3c052f46184823U, 0x12abf2e5f5b311daU, 0xe1d1c6e31edbffceU,
  0xeccdeb0ab1f8dae7U, 0xfe0cdae2f101d801U, 0x16f4efe7f8d8f9ffU, 0xf53befc00fdb0cf5U,
  0xf310e625100ef0e7U, 0x9fa0ae5dd09f6e4U, 0x2400dfd1f307e41aU, 0xf213ebd7fa260509U,
  0x112090fe20af2d1U, 0xfc18e022f32128e2U, 0xe48a050b24b9c298U, 0xc0e28babfab4cdbbU,
  0xc7109aebaecae306U, 0xe2f1ffa2f6dcadcaU, 0xebb504fd2a9ecda3U, 0xabc78581feabdaacU,
  0xa8edb4ccc4dadaeeU, 0xc7d60ac6abdcc3c3U, 0x12e414012ce80bd0U, 0xcde6c5d409d0fff0U,
  0xbffbf0e1d9170f15U, 0xe3d61000fd02e4f6U, 0xf1d00122240bd715U, 0xd8301003d71afbf6U,
  0xcdf512eb10ecd1c3U, 0xe6f3bbc1ea12ffd6U, 0xfe3e81b052be4f6U, 0xf72606bcfbe2ef03U,
  0xecd21f22f4110ea9U, 0xf05e5abfc1cc9d4U, 0xf2f006f423f3ecc6U, 0xfa1907f6cf0dcddfU,
  0xe504eed6f8ef10fcU, 0xe3c3d2f531fbd2ecU, 0x27f1dff6f632f019U, 0xe8f117ee0ef919f5U,
  0xd15d10422dac6U, 0x1522e00afefaee08U, 0x2be4d5eded2af908U, 0xf82729ef2ef126ebU,
  0xd506fb18fc41142eU, 0x9f9081addf5e6f9U, 0xe91eebf41b2022e4U, 0x2225d31609333404U,
  0xfe40f6e7221ffb38U, 0xcf083313f712ee26U, 0x19f3d90ff02306faU, 0xffe8f2dc2c07ff04U,
  0xf4f6b9f20ef4fb20U, 0xdfe8001ae30eb01dU, 0x31cfff6d9163df4U, 0x291be90527fb081dU,
  0x171eb9042522173fU, 0xd52119e6e3ffc912U, 0xda29daedf1d9f4f1U, 0xf10efa2c29ea2222U,
  0xc5a812d2729e05aU, 0xb3f354f2323af32eU, 0x122c1b1d24e21622U, 0x16ea25212f2b0b0bU,
  0x1e31f8f8f70de137U, 0xd04231e272e0036U, 0x1816141615b509cfU, 0xf8c7faf311fdeeeaU,
  0x1df1c8f9d2fafa16U, 0xfdff261317efbb1bU, 0xdbdf0f0d11b1d8aaU, 0xbdd8c5e8cfdecf96U,
  0xd9ceb6b8c2d0ecffU, 0xd3d2fad80006c8fdU, 0x1720160310e30100U, 0xee5180f19221112U,
  0x250dd8f1110a113fU, 0xdd061c3b0238ea14U, 0xf3060d103b91e5c0U, 0xc6e6d6dff803e8d6U,
  0xd924c9dbfb02f918U, 0xb8df11c8fe0ccb1cU, 0xecf70a1518b5ef81U, 0xd7dcbfe8ead4e2abU,
  0xcf0ddab8d505ea21U, 0xded014d8d727b9f5U, 0xd7242a061af9f5d3U, 0x17d1f7e11deaea07U,
  0x12f9cbec04dde543U, 0x96f30c051239c835U, 0xd1dc25150bc9c5a1U, 0xdecce9b4f5c093b6U,
  0xd5f1c9b6e8d606f8U, 0x95b50af8dd19abf9U, 0xe8d6100928aff5b0U, 0xefb3c1d009bdb4afU,
  0xd9dfc5b7e4d8cd16U, 0xc9c323ccf30fb9f6U, 0xddaf2eaf7c80d05U, 0x2dafde008f6eaf8U,
  0xde18f1d8ef1df2fbU, 0xedef0e01e8fbf8f6U, 0x1ad1dddefef6fe08U, 0xdae4c3f0270afffaU,
  0xeef2cdd5fc141723U, 0x14e1ffe7c706f10aU, 0xfedf2fe13d004feU, 0xc715f4e61afaf8fdU,
  0xef05fedbe31100f9U, 0x10ec0ff6afee1aefU, 0xeefcfef412d403baU, 0xc5b0dcf306d9e1c8U,
  0xd313d6dde9f70cfeU, 0xd2c507f3b7f6b1e1U, 0x14edd60e15e8fad4U, 0x3f1f5ea2726fbe6U,
  0xd91eb9de131d1128U, 0xe3fa18f8d218b510U, 0x17efc20a2c0d30ffU, 0xa1aebf70a2b1900U,
  0xe03dd1ee1d1cf724U, 0xe310113ff915e9feU, 0xceb0050d1c0b08b7U, 0xcdfcd1eae7dbebb4U,
  0xf30ec3efffef07fcU, 0xe5ab21f1011cbdf7U, 0x1800ea0133f017deU, 0x1e04d1e325d413c7U,
  0xf31f81ee25082b35U, 0xfdd4380ed31aa631U, 0xf004f22022f424cdU, 0x3b12024b2ece5005U,
  0x265c814c4422457eU, 0xbb006f05f763a757U, 0x95e151580c39bce6U, 0x245bf7011ef6aeb6U,
  0x1ecfcefd1bcc45fdU, 0xf6c709ed55dd572dU, 0xcf212358342de406U, 0xa4b092c32d7c2e9U,
  0xfc1fe24dd261cU, 0xdb0f3ff036fd130eU, 0x16033a331b09460aU, 0x93ae62642ddebf5U,
  0x1906e329f4ff532cU, 0xcb0a30443734e844U, 0xdcb2010800179a04U, 0x1fe2ddf4d3fba4baU,
  0x17eef2fce2b2d5e5U, 0x1099f1eb01ddf7d2U, 0xd6c0f5d02604a4eaU, 0xfbe4e1afddeab9c4U,
  0xecc918e2f6e9fbf1U, 0xf8e5a5d50deaeca7U, 0xfc8113ef28e6f70eU, 0xd9ca0fb1e0cfd3dcU,
  0xf98e4ffed2e7dcf9U, 0x12dcb503efdad1c1U, 0xfae5f3e919f7e2fdU, 0xeea6b2e9e6e6e5f9U,
  0xcac00c5d6b1a2c9U, 0xfebfdc10f3fce7caU, 0x29bae8d812e20106U, 0xcab5aeec26ffa7e1U,
  0x1961cc9c5ed9dd7U, 0x12cfc2f6c700bbaeU, 0x9afe0e505c626efU, 0xadd7bae7f7cdbf1bU,
  0xd3b650ee8e0891eeU, 0x19e4acf316fe05caU, 0x1efacb0922e427cbU, 0x2e40b0e46faf817U,
  0xc29dd0032391931U, 0xe9d44d2a2927b621U, 0x1822d6ef00ee1d13U, 0xf40b0b15320f04f6U,
  0xeb17e5fc2e10100fU, 0x10101222eb1f0e1eU, 0x2813819bb0ea121eU, 0x141a072bf342100eU,
  0xd5fc29f4fa1fd4c7U, 0x27f7feddf0fd0ed8U, 0xbe0ebff3be7e2e2U, 0xe1b6acfa29d1d6c3U,
  0xf309e2dae7f71e15U, 0xcdfe1edb05ebb50eU, 0x1e4b9f7fd0fd6e7U, 0xefe7ea0228fd12f6U,
  0x3fbf513f7f71c14U, 0xee030cfee6fbecf2U, 0x3f1a91b1c01a0427U, 0xdff1a1be9182affU,
  0xc71d3f10230dd9deU, 0x10f10531dad64bc6U, 0xcdaeff1b24d2dfc7U, 0xe3e09fc200bebfc5U,
  0xd2eadad3cab9ff0dU, 0xd4bff2af3be2d3c6U, 0xe9d2e8f5373edc0eU, 0x14eccdea1ac7ce09U,
  0xbcf2f7ebeed70214U, 0xf7ed1f1de5e5e9eeU, 0x281cc6dbea4e114aU, 0xff12272ae9180226U,
  0xdf1e30042627f4ddU, 0x3aecde1fc2e53304U, 0xd6bb4026ebd7c5adU, 0xaa14e5b00dafd288U,
  0xa5b7bfc3e4b15608U, 0xe3c707e6f7d9d9f5U, 0xfd0116f6b60dc0a9U, 0xf045fceecec9e506U,
  0xf1d5faccefec3ad7U, 0xfbcdf0254bc8ff21U, 0x1be3ed02c3fddb07U, 0xe40d0defe4e30008U,
  0x11f1ea04d2111109U, 0x3bdf050b0e1825e1U, 0xd8c1e0dfdc2ebce3U, 0x1c0ffed800d9dbd9U,
  0xabd3ffc2fbdf23d7U, 0xdfb7e6fae5eeebc8U, 0x1e0108b2af260d22U, 0xc3032dfcc21fa21U,
  0xcff01ece0812dadaU, 0x29efd815c01011dbU, 0xfce7bfb7baf2fc45U, 0x12ddf7f8d91cf9fcU,
  0xf0f81e15090bc9b4U, 0x2d12f42a2e1739f6U, 0x1d00e502daf13bfdU, 0xffce08ec3cfb0c1cU,
  0x1f19dbf7f82ff20dU, 0xfb194c1a0950c004U, 0x412681cdd3194627U, 0x1dec193d3a052f43U,
  0x371cec222f3fc920U, 0xfc04202fcb0104feU, 0x13f296d2a30a3418U, 0x3c206311c160841U,
  0x1b04da49051bb3d4U, 0xf2ff2123d221817U, 0xa2e8f3ff12e1daa2U, 0xc7e9c58eddb3d0c8U,
  0x1af9cdecdfb6e105U, 0xcfc942cbed07b5e0U, 0xf3f605fcfd1b081aU, 0xf901dbd9fabddcdeU,
  0xf411c908d7ea21f0U, 0xf80620fcfafaccedU, 0x506e9fae826273aU, 0xfcf92e37e71b141dU,
  0x17ef19f0fd0cfae9U, 0x49f4e80ef10736f3U, 0x89d32c21e82abf90U, 0xd4f709b4c4c79390U,
  0xd5d5d6cdb58af8f1U, 0xd383e6b01a04a107U, 0xd2034e5027f0ee6U, 0x223820f7dffdf907U,
  0x171401f935d222f5U, 0x4ecf9dffcebfd33U, 0x63507ebdf57204fU, 0x35243425db3e1014U,
  0xd4f43c151c26eef3U, 0x1c17aa28ec3d360aU, 0xcbe94c02e1fe9897U, 0xc30efdb7b2bcc295U,
  0xe4adf2dcc9a401b4U, 0xfc9db6d425eb04fcU, 0xf7223018ed270ef1U, 0x3228feff11ddfffdU,
  0x1fe3d7d1fdd811fdU, 0x5f512f4f406fc18U, 0x1d090e02f8182e2fU, 0x44033b2f202f360dU,
  0x2608024b2efafa0bU, 0x1f31035101243242U, 0xee0703ee92051d18U, 0xf81116301507133aU,
  0x20050a0e0c1a3933U, 0x1a24e3ebff12ef27U, 0x10fcac39b0e1613U, 0x13eb1215f910db0bU,
  0xf0fe183c02f6c9dcU, 0x1431cd00f61b03faU, 0xfedbe5f2cc12ffd3U, 0xf2e403fcd5f8ec08U,
  0xfecf016bed8b3feU, 0x1210e7ff41e3d2e2U, 0x4929cee6a4dfed29U, 0xc281942d43825eaU,
  0xe726112e0d050605U, 0xe628e80cef250322U, 0x12fdb7d784172202U, 0x25d6231deff2171eU,
  0xf10002312a11e0e3U, 0x173bd70506172330U, 0xc9efbbd494d7cc06U, 0xd0e1c7fccce8ecdeU,
  0x1a04d5e2e3e1c0ebU, 0xf5fab0db3dfad6e5U, 0x2e149cb1bb04e00dU, 0xf8e61709e70a201cU,
  0xf5fdfe200539c7f4U, 0xf437fc16ec11f3feU, 0x2a0081c795e00413U, 0x1ce30340072afd00U,
  0xd090234fb2dd11cU, 0x736ffce0133e52bU, 0xfce98da18db2f7eeU, 0xeabdd6000b0cf8d6U,
  0x31ecbf6f8d5c4f8U, 0xbc16ecf33cfad3f5U, 0x44f5b19fee222726U, 0x9261e20e61d1519U,
  0xe50d19ef2137b7eaU, 0x283eed2ff5112219U, 0x1d138ec5c5ef3930U, 0x3082dfb2c1213feU,
  0x2425fa3319d0e5U, 0x271e2219eee50b07U, 0x2520cdd6e7210115U, 0x2d0a37e43023fb16U,
  0x181afb120721f9eeU, 0x1715f22814f119f3U, 0x22ffd8f1c9fb1513U, 0x30a021613061d07U,
  0x170723171d35c6efU, 0xfd29f503fe1601ebU, 0x5eed8d8ddb708ebU, 0xdecdd5ed11e71aefU,
  0x132cf1f7e80003deU, 0x1d26f4ccf00cd0e0U, 0xfeda051201b3dec3U, 0xb1d8c5cc1fe7e1c9U,
  0xdce5f5ebc9f5f6f0U, 0xe20fd9b3f8c5e3deU, 0xfdd205c4faede3f8U, 0xf0c7032fe8141afdU,
  0x1b20f932e4e8000aU, 0xdd17dafdfa1001f2U, 0xdaebefd3fcb9e5d1U, 0x8bc6c5dec701e1d7U,
  0xfeede1feb0c3e6dcU, 0xe9e3b4c9fc08cfb7U, 0xd2a2162d23df9eb4U, 0x81c2c2a2a9b0ad84U,
  0x8babb6d082c0f6b6U, 0xbdd6beb7e7c5e19eU, 0xf81909fd062cdb29U, 0x22f2d2dd9efef0aU,
  0xf2eee90412d10efaU, 0xffe610fcf1f323e2U, 0x2d56fdd7d2ea03e5U, 0xc5050b25fceb1a12U,
  0xf02528220e0cfa1eU, 0xd720df0b1937e81aU, 0x2b52e9b9faec0bc1U, 0x1e02132e03002336U,
  0x2d0acb2c13faca2dU, 0xf10d5333673ddc47U, 0x8df1fd61d02dc21U, 0x80e03c6f2bef50fU,
  0xc3030602f1f9bad1U, 0xffecca0ac6dde614U, 0x25280ccda6172b21U, 0x22262248df1ef713U,
  0x1c2e0a43f3f78116U, 0x31fae12b06171547U, 0xe35d88c6e81e47f4U, 0x1afc1d24502e1251U,
  0x454bbf4e5321df15U, 0x151d1c265039de45U, 0x30d40aded5cfe5eeU, 0xf809ece5bee7e013U,
  0xe68d1ce6d205c9b4U, 0xe7ea8ac7a1b1e7e3U, 0xfddda3c2ae1235eeU, 0x152a0d390d21ef0aU,
  0xad441101ef19a04U, 0x7b3117e8ddd5c3f4U, 0xb450d6d2be0447feU, 0x4df2335334f25f7U,
  0x7f2b971549eee54dU, 0xfe2318ce4d30b211U, 0xecf7bac2b515080eU, 0xfb05220edbf9ec1dU,
  0xf80209fd0d09e8f1U, 0xfd10f926ef0b0401U, 0xf711dbb28116f2f0U, 0xf0200cfabc18fcfcU,
  0xe4e7f8100803bbe5U, 0xf907cff5ca1731f7U, 0x10e702c8a801e6faU, 0xf31310fcd5dbf7fcU,
  0x6000ce1f701c2dfU, 0xaf4c50ef9f10ad0U, 0xe0ca3bec8051823U, 0x8df0908f2161122U,
  0x1fb2c091009e212U, 0xf921f023c81300efU, 0x1319bcc9a5fe1e10U, 0xaf61b250b12201bU,
  0x1b1209e90f2a0b02U, 0x1dfe1c1ff1f90512U, 0xf6febbb0fe09fe04U, 0xf51ceffd1a0b09f8U,
  0x121a18f11836cb03U, 0x1f619fafbf51710U, 0x217bce5cadcfd00U, 0x26e30413e109050cU,
  0x11ecfe000508e7f1U, 0x21de40ae908e701U, 0xf218c8d0b7d508fbU, 0x1082002fa14001bU,
  0x214ec0217ffdef2U, 0x1ffdb09e6f9f900U, 0xfdfddaeac0eaf0dfU, 0xddf5eae9f7ffdefbU,
  0x509db04140ffe19U, 0xfddff4e0301eece2U, 0xcb0834cec23b19faU, 0x2f133511dcee050aU,
  0xe5f60f0d01d65cccU, 0xd8da161ce2f703c2U, 0x1325d6fba80f0dffU, 0x34d0612e5e11637U,
  0x1b152d072ef002e9U, 0xf8ddf20b35ef2e23U, 0xe2e1023dd8e6fae3U, 0xd331eb12cbfadac5U,
  0x3c2ef1de6a7310cU, 0xd5edafce4526f90cU, 0x26d109d59a032147U, 0xef00320f19160d23U,
  0xee1d39e4ff162cdfU, 0xe8facf20efe82cd7U, 0x101ddfed81ece927U, 0x392b1b42d3f81325U,
  0x1fef31281f12e2e3U, 0x2cfcd3130625f00aU, 0xeae0c2efad0ee2f0U, 0xd404d50aae04f0f3U,
  0x2feafe21b6eed4c6U, 0xd20d91d43c39d5d0U, 0x26fee39cc7e14fe7U, 0x7e7ef2517332920U,
  0xe0e7d4cfe818f50dU, 0xe71cee07c50a2f16U, 0x1344bb8e93aa0938U, 0x2ff619250c16243dU,
  0xfd23e92df41dda1fU, 0x5e01b2d1c2fc7efU, 0xd102ab84abc2fdceU, 0xf1aef4e7f337e618U,
  0x231fd213dc1abe09U, 0xe908edf33415f80fU, 0x14d5c099b7e5f1f5U, 0xffd0e9d70704dcdfU,
  0x701ecf3f3ecc3ddU, 0xfce3fd23dc151402U, 0x29f2a68ddfe604f6U, 0x41318deeaeffe15U,
  0xdd04f8d1e90c8d05U, 0xf207fd0bd1e405e7U, 0x7fabaddfee90ae9U, 0x15fee8ece504f9f2U,
  0xee18ddd2ff01d224U, 0xd8ff0bf01007f0fcU, 0x101493c4ca000731U, 0x2f1de11518210a2dU,
  0x3916ea0f2424d909U, 0xfa0e0c3b0c03eb15U, 0x220381c4b5ee380dU, 0x261f000305132c31U,
  0x3042df242306e012U, 0xf31c121bbb11eee8U, 0xf60bd6e2eb0717ecU, 0xc05ccebf7fb12e0U,
  0x1b1ed5fe00f8f516U, 0xe9091af7ed14f5e8U, 0xef7c6fa0ad5252dU, 0xf05e31c02ea0d19U,
  0x2001fbf70f1110f8U, 0xe3f82113f005f1f7U, 0xa0fced7f3d91b20U, 0x1a0cbbfe1d0fdf01U,
  0x283dfaf7e0f209e8U, 0xed2519fa0ff5d8f2U, 0xc8ce04f5faefe9e6U, 0xcaf6b3e214e3cdebU,
  0xea1adae3e10c07e5U, 0xe1e907d815fdd5cdU, 0x38c0b1c1030a1620U, 0x8ebc0f605f606U,
  0x1b0ed43c10c406U, 0x48ffee00ecde01ebU, 0x3107aaf1de28421eU, 0x31282d1947252c2bU,
  0x2b062e0d6506e537U, 0x61222238f62b1824U, 0x2e09add60821303cU, 0x1f36193537573211U,
  0x28061c0f381b0607U, 0x51fdf33a5b27100bU, 0xe9b0fbf30eba01d9U, 0x70ed4eaf8e420dcU,
  0xeddfcdd8e60712U, 0xda12f208bbe0d7fdU, 0xefe5eefefa93faf0U, 0xd8f0ead833bc05f6U,
  0x2a1dd8ecd6fc4109U, 0xcc180cfbfe03c6d7U, 0xdadbda000181f2d6U, 0xc006baf400e7f7fbU,
  0x15f8d40e061317d9U, 0xd2f605e81e15c1f5U, 0xe1bd050116cfd7baU, 0xb5fa84e604b9db9eU,
  0xb9d59ff0c7c31ceaU, 0xa9eebda5d1aab1dbU, 0xbbb9151a0cf09bc2U, 0xa7d690c3a791e0b6U,
  0xccbe86c2b0d509eaU, 0xb7efc69db3b7c9b2U, 0xc2ba181bf409a5cbU, 0xcd09b4cdd3a2c6c3U,
  0xaee5bdb5bdc327ecU, 0xbdc9cda9d7cddcd0U, 0xbafc2600e60dd3e1U, 0xd1fbe5f0f9b2f511U,
  0xda0381f8e0b92023U, 0xb5d8e9e3d200c418U, 0xd9feebf4d02402fcU, 0xf31e830f7f80efcU,
  0x11f40518fae21d25U, 0xefdf1813b7ede5feU, 0x44d040dc806f136U, 0x191b1ffdef2af426U,
  0xf1f8251920f2100bU, 0xdbf7f204fe1716eeU, 0xd3240828f6f1b2d2U, 0xf4ead606d8e8dde1U,
  0x1ffd9f04eaad2306U, 0xc4f2f0db1329081cU, 0xa1ef528d32bf4ceU, 0xf710162ef2f3e3d1U,
  0x1012fb1c14eb3bf2U, 0xec19070d0f0a1218U, 0x715211ede1b1307U, 0x283f1b2de41a0a0aU,
  0x32e4fd2c48d5040aU, 0xf8e9e31c212c1bf3U, 0xcb270c4dde03d2d8U, 0xff060c1aedddc9f8U,
  0xe1dfd22e2dea2411U, 0xcff10cde0003280eU, 0xf802292cf43702dbU, 0x191d281df4cee40eU,
  0x32f1e3ea0fd73900U, 0xe4e0f6e913fd1a22U, 0xeb3eff39c901170bU, 0xe371532f312e4daU,
  0x29fcd60863f00310U, 0xcbfc17e3332c0f21U, 0x2812fdffec0b315cU, 0x481f13271a31221bU,
  0xc13081e151b1729U, 0x2d3f1c220a0e0705U, 0x2209110cde141d27U, 0x383523224f3319fdU,
  0x171d1902330a17f8U, 0x3b290c0c100df704U, 0x330a080df20f1716U, 0x40f74a061e2af7ffU,
  0x220cf8f325e232e6U, 0xc1808fa2e111633U, 0x32f13a1c030d38fbU, 0xd04181a35f210fcU,
  0x2c35d4142a252609U, 0xc42037ff0121d900U, 0xecf506220eed07c8U, 0xe1f6c4ee28c306eaU,
  0xf918b7f300fe2803U, 0xd1f604d416f8e608U, 0xa7d3fe0d040003b0U, 0xfd10bbe11ce4f5ddU,
  0xd80ca9dfedd70cf2U, 0xd5b90ff9ecfb0622U, 0xc6c933231316a781U, 0xe1ded8fbd4e8b6a7U,
  0x1d99bd7d6b7f3daU, 0xaeebdbd1491817f0U, 0x99950d30ff04958bU, 0xe50aca8ec5ac9f9bU,
  0x9ba4a9b3a4aaeee8U, 0xd795c69ae3c100d2U, 0xb5bf111cf93cc597U, 0xef11b6b2fc92c0b6U,
  0xd9e3b1c3c9c721f5U, 0xc895d8b205ccedd7U, 0x99c60d51dd39b0d9U, 0xb91ef6dbd8d5d4beU,
  0xdbef81baf28b62f4U, 0x979627d713cb25efU, 0xab15f812dd29d307U, 0xe33ff6ebc8a8d29aU,
  0x1682d7a341c45bf3U, 0xbcaf0de101ce052fU, 0x22f6e3fc0dfbeef9U, 0x4710fc14e1f0f438U,
  0x3c16eae135000217U, 0xf5e2172effdffbecU, 0x900f2825c1568be0U, 0x2947e7e8b3e3bdd6U,
  0x8b3b2121c9355c6U, 0x83c600fc4cd6290eU, 0x9804314eb428bde3U, 0x84426e7b4e7a89bU,
  0xece6bdde3fb83f15U, 0xadd803e24cda3f32U, 0xefed08130e220814U, 0x31f8fc0d001728f8U,
  0xe403c7c0180715fbU, 0xf8ef052d20da2414U, 0xbed6fe0ed439b8b4U, 0x2c5f1803bbe6ddffU,
  0xab1dda0613d438c1U, 0xeeedf1fc1dca0ce2U, 0xe001f515ac52c41bU, 0x371e1727e120b6aaU,
  0xe122ade644d44bfdU, 0xe2328e72af12111U, 0xf31c1615e9283215U, 0x33f815222b28f234U,
  0x3017063f080ee021U, 0x61f0b2e3ef0eae9U, 0x6c30e0afac6c6e8U, 0xc096dcaf1aefbadfU,
  0x4e201fdbff2b3b1U, 0xec21cac6cbf1f9afU, 0x26c5dbef19fce9eeU, 0xcc06cfb515bf070eU,
  0x8ec501fda20ceebfU, 0x420ba512cb93ebceU, 0x1bf2f526d9430c2cU, 0x195e34062a041413U,
  0x3a0b0b0419011100U, 0x1b1b180816f41eedU, 0xe7cd04091789c99dU, 0xc7b5acbbedaed8bbU,
  0xbab4d4bda8e2c597U, 0x11e7d3a2a6e1db86U, 0xf8ba330f0701f3f3U, 0xcdf3bed3e9cbd7e9U,
  0xd9b513e7b1edd696U, 0x29d4a3f5e0aaefc6U, 0x18f0180ae73bf344U, 0x3a4905ff3307f1f7U,
  0x22e93616f7edf620U, 0x50110ce13ae60de0U, 0xc4ba02154096e781U, 0xedcfa7d8e7a7ba95U,
  0xc4d7cce1bac0d0baU, 0xdea921b7b6e2dac3U, 0xe6db02e4fe0aded4U, 0xb206a8eb06d5c8e7U,
  0xe7c2e7c9d0cce0cbU, 0x16e1f3d90ac2e9c1U, 0x2712fd01dc3ffc13U, 0x342f2afb3e14e705U,
  0x9dd3204fb12fef9U, 0xd07fd0a37ea13ddU, 0xefa3d22efadd1fdfU, 0xc29fae308faeae5U,
  0xdc1dfbcdebfd3e0eU, 0xbfcce1f11efaccf7U, 0xefeef80dcc30dcffU, 0x14ee03edf8efe20aU,
  0x1d8e013e9043de3U, 0x1abefe34e9e6e222U, 0xe7dee51be60e02c5U, 0x1613dc0513f0cb21U,
  0xdeae6f80bd50dfaU, 0x3cc4ebf82ff20708U, 0x1927c8312ccb0cddU, 0x2fe0fc162fe31c09U,
  0xf94e9cfc15244c4bU, 0xc8fc5633402bb649U, 0x36eccc3310f93655U, 0x2a24152d3a023d09U,
  0x553a90d4131f367U, 0x1202262ef3279667U, 0x2d47b0edc61b080eU, 0x7219fd495e420f2bU,
  0x4e0fd81b0de71e34U, 0xef60f1a2a15bdedU, 0xc7bcf01e1cbce0ebU, 0xdad1cb26c6e7ffeeU,
  0x4309606d3c51203U, 0x9e17220b2c20ae02U, 0xcebdeff7a09b0b47U, 0xfe901024f6352de5U,
  0xfcf7ba21f3ec0634U, 0xbefae1d70020a30cU, 0x3059edf81b9d53aU, 0xf2c81429e01a320dU,
  0x18eec000d7f30a48U, 0xed5212ed0d27b0f6U, 0xeb23fc008b36e638U, 0x18361020d3120c20U,
  0x27e61ffd0ee4d6ecU, 0x25209e21e003ece2U, 0x5f7c9e181f8d918U, 0xf4dd08e7c7ee0017U,
  0x1bfa0204160322d5U, 0xd7f3bdf30a2cf508U, 0xf7ecf1fecc18efd7U, 0x17d80cecdcdfdff0U,
  0xed05ee08040e17f2U, 0xbfaf606d1f1f0ffU, 0x1324e4eb8e16070dU, 0x100311f406393229U,
  0x2c2a410b0a22b9efU, 0x180a09151cfd11feU, 0xff0eceee990c1115U, 0x1f1a1ffa10eb2df2U,
  0x2a16fff11b00f714U, 0xd5f52b1dbc00d126U, 0x16ffe8efc9f3dce8U, 0x35e9fdf8ffe8dee5U,
  0x1b4cf6eaff1525f9U, 0xd8c419cef605e30fU, 0x920c8cee1e315e5U, 0x401a093229d8382fU,
  0xe460d1d2b16f1ecU, 0xdb0e161a071e0a0bU, 0xd52be302bebf1c0eU, 0x12d8101913daf2d7U,
  0xe1ca9112225ea42U, 0xe2f60bdbf527c229U, 0xeaebc5e918c4ebcbU, 0x6dcdeecf2e7ef04U,
  0xffcdee509e1e204U, 0xfce522f3f6e1f208U, 0x1248def7a013060dU, 0x33155415e0462d4aU,
  0x35fb203638062714U, 0x453b03163d062dffU, 0xf41aff0800f8fd04U, 0x1af10be4fa000de6U,
  0x3622211501fa00f9U, 0x101ee6f542290bf8U, 0xeac01a19f40d9abfU, 0xb0069bcdbbf6ab96U,
  0xf4dcfac7dccd3ddbU, 0xc2cececafadafcd6U, 0x2354d109d6103931U, 0x1cf05521222f3f30U,
  0x6335fd253037031eU, 0x64d2f20631d1417U, 0xeebf8ede5ece9e8U, 0xdbd30e0bea0df3edU,
  0xf9e8ddedf8f1f4e7U, 0x125bee529f118d7U, 0xe0ae0b00fbf58ad5U, 0x98cebba39df0cad7U,
  0xd6a106ca81c510afU, 0xd7c7a6afddc5fcbbU, 0x1d2dfcdad7f0271fU, 0xf1e61b2cfc461910U,
  0x3b0e213433fde721U, 0xee3ff123542d1930U, 0xfaf1fdcc00c3e509U, 0xe8cdd526ea2407e8U,
  0xcf1208ebdc2ae7e8U, 0xec2db417d7110ef6U, 0xe7c104fd19d1d202U, 0xc3d5d7b9beeae5caU,
  0xd6ccfbd5b2e8e0c7U, 0xffdcb3f0e1ee08b8U, 0x16dc04ef22f727e7U, 0xf0e4d1cf06dc16f5U,
  0xf013bfcc0327fc10U, 0xbaf535ec03ffceffU, 0x1df9f1e7f4e51e15U, 0xd6d0caf10ad30fffU,
  0xc631cfcdd01b0400U, 0xdd19f7fcd802e7fcU, 0xeebe4f5f8dc190cU, 0x2f07d60d301e0afdU,
  0x611e5e51913e219U, 0x62b301003e7edd3U, 0xcfeeff1a0202f9d6U, 0x15fdf0dc06cdd5d2U,
  0xfc2581baef260fffU, 0x9fc428f4ed01e226U, 0xf8eefa27cc3ff909U, 0xf50a11faed03efddU,
  0xe1eeddecf3f03febU, 0xbcd20a01f5d5eff2U, 0xf32c1134b229f111U, 0x2134250cfeda05efU,
  0x37e2ec033bb12f01U, 0x19d4f1071aebfc10U, 0xaf061a32e718efd4U, 0x260202ee07dad3d0U,
  0xd31996fc37d32e0dU, 0xb2c829e41908f434U, 0xd2fd171ee12cd6deU, 0x1f252020c6d8d1f0U,
  0xf70ded0513b83fddU, 0xd7b9f40108cd310bU, 0xba213b45be36c9f7U, 0x23563707f205a302U,
  0x279a100439c430beU, 0xec2daf445ce4714U, 0x2dfad70118ef3811U, 0x1d08dfed0df402f5U,
  0xf72dfdfb071e0d00U, 0x21213200ce1dde19U, 0x36fad30c0007322bU, 0x231038096ae62a22U,
  0x61b0d090e2c1a3eU, 0xf225727f830d654U, 0x481ad6e4f1ff4813U, 0xfd0a4afb312f5126U,
  0x2422130a03360339U, 0x2c4009232f23121dU, 0x17c6f2e904cbd7feU, 0xc7f2cfcaf2de02c9U,
  0x8f2efe3e3f90012U, 0x1809fe1304dec3e8U, 0xeda9ee0303c9eaebU, 0xc0f8baae14bffef3U,
  0xfbd5d0ded1082900U, 0x3eb00e125e1ccf2U, 0xf29def19dfebebe0U, 0xb8e2a9dc11a102e5U,
  0xeee9f1dbda0216d2U, 0xe8f1f7d216e2d11cU, 0xeec7f7f306070bfaU, 0xe3f8d0eeef0eebcfU,
  0x3209ecdacbd724eaU, 0xede5d9de0bf4dbd3U, 0xdca41319f0f5c4f1U, 0xa212d6d9bacccfd6U,
  0xc9aae4deb8c31ab7U, 0xe1f7bcd4efe9e7aeU, 0xc5810826ed18bfefU, 0xae17dae9a8add0b4U,
  0xa6c5f0bbecc61dbdU, 0xecd9dabb10c8f2ebU, 0x42efe2f803ea2704U, 0x1360c20eb16ff2aU,
  0x6f7e50205fc260eU, 0xf6f11919e92cfdfdU, 0x1611f9fbca263452U, 0x341d2f2df9132726U,
  0x1a01f6202a231a12U, 0x291ff23fe0240824U, 0xe0715e3ee20f62eU, 0x13e74619ea31180cU,
  0x2f06f02d0823e701U, 0xf721fc060b0f0238U, 0xcbf6fdf314cf0fddU, 0xee0bcffb08d83517U,
  0x25eeb6052e011803U, 0xadf815d31f18e2f3U, 0xfbfe0318faf6180aU, 0x615fc3717ef2d0dU,
  0xfc2ac21f1b013d14U, 0xc4221dc71b1eee11U, 0xdefd240c0a01f009U, 0xfb0ceb1ffc110c29U,
  0x13fbb12ffafcfc01U, 0xe72515e41002f928U, 0x9ce813fe00fab1b2U, 0xe0faf606e3cbc2f0U,
  0x8f9d1e6faccfd00U, 0x98e8b7bf1416ce02U, 0xdacc281924e1cedaU, 0xf0bf1012c5d1c6deU,
  0xcaf4b2da00e1e81cU, 0xb6cfc2b00616cbfaU, 0xcee22414fafb0feeU, 0xbd0d0b53c2bc0bebU,
  0xe3e9810e05d70409U, 0xae05e6d8e32cd410U, 0xe9e2dbf2f203021aU, 0xf2af316cd11f2ffU,
  0xcee834dee807ecc3U, 0x1a44e615b2c33fd5U, 0xc5e7f5e316fdf8fcU, 0xafc03c93c34e2c9U,
  0x3cf706f721dbeff8U, 0xe3e4efb06ffe24afU, 0xc5d5511827feccb1U, 0xb9009ddee8c5d3a1U,
  0xc200b6efe0bd32dcU, 0x9cd1de9fd4aff41aU, 0x16c1d6bcf9082827U, 0x2e0c2bfa1bfa252eU,
  0xcf013a09122ea8edU, 0x6725052df1c727b5U, 0xa902f7d8091a0c25U, 0x8e1fee044300dc0U,
  0x39fcffdf2cc3efeaU, 0x13f7f0d77fee18b6U, 0x96b54a15f01ed6abU, 0x8c1eb3cfeca5d6d2U,
  0xe0d1cfa7aeb3188eU, 0xb191ca84ffaccdd2U, 0x23e0a5cde8fc151dU, 0x152106e91f1c244aU,
  0xfa38470c0628ba06U, 0x6d0d1e48f0fe04eeU, 0xe5f7cdcae800014dU, 0x7f400d23d3f0603U,
  0x4831f1f516e7c7e7U, 0x41a11fe510609f4U, 0xb7a22a24d823c4d4U, 0xe80eb7f2d5d8b387U,
  0x1fcffc0c9dc19f4U, 0xcee1db9d33c4eee3U, 0x150d1aa6b5161004U, 0x8f830430c401729U,
  0x1c11e545262ae723U, 0xfc17f9311641060eU, 0x1f0a0ec8cb092915U, 0xf3f00415fa14f2eaU,
  0x6fbf40a1607f714U, 0xde230a1eff04f212U, 0x17fbf5cdf8eb130aU, 0xf8f31e0f02e517fdU,
  0xff1909111100d5f7U, 0xf060201fcffdbd1U, 0xddf8bebbb5e709ebU, 0xd0eada361aec280cU,
  0xecfcdf39ff10121eU, 0xe90cfed7202da52fU, 0x10da9381d8b91104U, 0xcee7cb2228d70b09U,
  0xee11cd2f0c12f008U, 0xeffefcfdf818dc31U, 0xedf8cbec5b229ecU, 0x1413cefc24f01fd6U,
  0xee06c714f610040aU, 0xda18eed6fde8dcf4U, 0xd4c3b5b1aff0e12aU, 0xf19eec20caf2f6dfU,
  0xe2ebeb15d4e5e70fU, 0xf927ffdf0d07feebU, 0xe8f298adc9f1d7e9U, 0xdcc2fa21ebe4fcd0U,
  0xf0efeb09f7cdf0f9U, 0xd83907cf18fec7e1U, 0xfccd9d9fbbfaef02U, 0xeadfd80828ee04feU,
  0x911c812e808e612U, 0xf217edd80ce6cefdU, 0xacdf2e202dfbabc7U, 0xc504d7d1d1b1b9e6U,
  0xccd9a1b2c0b409a5U, 0xc1a3c59fd6bde7c2U, 0xe8bb26382ae4cfe3U, 0xcf04d6c8d4e4d6caU,
  0xc4e2c5e4b0b6cfd5U, 0xb5ddb1e9b0d7b8U, 0x25b40f2d17e4091aU, 0xd5e811e00efa0effU,
  0xdf02ead2c00eeec6U, 0x1ffbd309df8beea2U, 0xe3ac1e3115fcdcd7U, 0xb0edd4e7ebc2a3edU,
  0xb5c8babbcecf0ac2U, 0xf8c1caddc3b203c6U, 0xea90051c25eee9e5U, 0xc3f3aae8eeb9c6d9U,
  0xc5dbc4d3c0dcecaeU, 0x9bccaade5c9f1acU, 0x2381070320f3f017U, 0xc2d8d0cdf3e4f6cdU,
  0xbad9fedfbd21f4beU, 0x23f4e5d2d99913a6U, 0xae9180a0903ff0bU, 0xf60cf5f908e6f223U,
  0xe104eee80cf6f6d9U, 0xf2d4f6fbe5e222cbU, 0x17c10b0024dbe1e3U, 0xd6e0ed1dfff6c7e3U,
  0xd503f010ea0704d0U, 0xf5f0e4edcee314bfU, 0x10d4e206f9e5eaf4U, 0xea11f2020de4f7f0U,
  0xc7fef203ef13d7f3U, 0x1a15d3e5e3db0efbU, 0x29339fbabaf3f254U, 0xfafa2441e7f1030aU,
  0xff06c42f1b02e725U, 0xec28f806ed320c0eU, 0xe6dfa381c6caeff2U, 0x3e84329e2fdfdecU,
  0xf9eb062e0201e2ffU, 0xee42ec0adc42e302U, 0x25c7f2a1a9fdfa13U, 0xc7084013c9de1aeaU,
  0x20f70b03ddf2faU, 0x14fdf2071a08fcfdU, 0xe2e789c7dcf20cfeU, 0x17d7183c301b0220U,
  0xa11b82df217ec34U, 0xbdfe001d1c22e51bU, 0xf10e90b7d7bff40eU, 0xb80bc402f61309eaU,
  0xfe01e61ee5fdfa22U, 0xd3320209d90cd7fcU, 0xfe885bdbadc0d15U, 0xc5e90ffacef4ef09U,
  0xebf3e414f5fcdee7U, 0xf713d5e421eaebdeU, 0xddd2c5f2dbc50227U, 0x9d4da03f3fa1fd3U,
  0x5fe852bfbd5d8e6U, 0xc419fadbc4efaad6U, 0xeb1e85b697ceff00U, 0x909ed0efad501ebU,
  0xf16e11cee110f0fU, 0x8b1dee28ff1ab404U, 0x92fb1d59a0a0c02U, 0xeef3031e02133e0aU,
  0xf20dee1f3ff8fb2bU, 0xc6df141c21fed6f2U, 0xedc61e1fd7348713U, 0xbdc3970697ffde02U,
  0xc590dbef99aa70dfU, 0xc601abf4e409f135U, 0x2c406ffe71a8cefU, 0xe62fd92a9ebf39e1U,
  0xa6a1f31ec5945fc2U, 0xc33dbf0ab92be62fU, 0xe8502859c531e004U, 0xebdb220cd3d9e00fU,
  0xf0eff023d0e5f9f8U, 0x4630f8e4072003cbU, 0x3ff2132598240531U, 0xd33216ebdf38b711U,
  0xdfcc7c7f30aea1dU, 0xe8fc0448f424b9e3U, 0x9132fd2991bf4edU, 0x91a382ce8fd32f9U,
  0xb8fcca27d2bef3caU, 0xf942d6fbd3b6f837U, 0x2d160c129c63e03aU, 0xef23d21f546272fU,
  0x1b1f21f104e2ddebU, 0xeebdee17be21f913U, 0xc4e0539baf7fb13U, 0x57f8196d1b56dffdU,
  0xea3ad61a2716ee0aU, 0xb2e459e6ed6ae365U, 0xee38e735ee197127U, 0x7d3a35793744f03fU,
  0x3d2f9ddd42442d5aU, 0xca065b34a9008168U, 0xe227e2ef85c35cffU, 0x48daeb16460f1d04U,
  0x31fcedca301621f8U, 0xf0014eb10e03c6e5U, 0xe8e8a7e8111df512U, 0xa11a11e0bcdf16cbU,
  0x12f342abd317fef7U, 0x1c1101fcd8ea4413U, 0x43e5e8a7d04a2b2aU, 0xf51a4af39211faeeU,
  0xaf93e0606fee5beU, 0x3f37f3f5bcea4bfeU, 0x3f4510ccc9300a1dU, 0xfd2f150ab622422dU,
  0x17fa2ae7132be6ccU, 0xfa0bdaeb2515461aU, 0xfaf0ee181ff036deU, 0x206ec091ae4f91cU,
  0xfa1bd9f912bf2bffU, 0xf21727f0e2fdf723U, 0xf64eff01df0e31e2U, 0x2b1ee00926e1252cU,
  0x13f8b82438e9fe27U, 0xd705e7e6d3270231U, 0x2724f31cf112eafaU, 0x6e30a4a2912461cU,
  0x4b03ea1e1d11032eU, 0xc2173e2b1f08e94fU, 0x92ee2e1e031cabf7U, 0xcc1da0d2d6cdd5b5U,
  0xd9cfcac6fbbd13d7U, 0xb6c7ccba2cebe1beU, 0xaac2372529edd412U, 0xdae11ce7f101ceb7U,
  0xc5af90e2f0a5d530U, 0xa2dacbeb0604c607U, 0xaa0237ec28fde1e6U, 0xce09ee0316aff7b1U,
  0xdb0481f0e2e33c1dU, 0xaf11e7d02820b024U, 0xe4abad0a9c09e80bU, 0xf1d5dfbf13dbe1c3U,
  0xc9eceed2b5ec1ebbU, 0xd8d6dbfbf4dff7cbU, 0xede98bbc8df9e1e3U, 0x9ce0e6f2e8dbcf15U,
  0xbdfbf7b7b70dd8a5U, 0xe9e895c1dca501a5U, 0xd2c2defdb718cfd9U, 0xc907d3b5f0e3bf03U,
  0xb1cdffccd1eee0a8U, 0xecdbb2fda4aa32cfU, 0x3df9fb9b53f0505U, 0x3d1bf7e5281812ddU,
  0x22090b021b310e16U, 0xff081d0df1d605dbU, 0xfffec1b8851ac216U, 0x2a17d9fc172fe500U,
  0xe1ea28102136f4b4U, 0x46f0ee51d8e13801U, 0x32f786b79aec073cU, 0x481305ffe825f9f9U,
  0x833f2ac0018e10bU, 0x17c8e1f813df4303U, 0xfc2ae4f20d262504U, 0xf5ff2c0b200bdb23U,
  0xb0ffa012b0107eaU, 0x13032605f2dffafcU, 0x5008e8c5c2170e1eU, 0xe202a05e1171f58U,
  0x25281e07072611f2U, 0x1d2828fcfdf1fa23U, 0x2020d9c381ee0621U, 0x1e3639fe3a2af830U,
  0x62d4c010efe1d1dU, 0xf63b0afdd8f952feU, 0xa7a7011a03fddfdfU, 0xcbedaedff0bdc0acU,
  0xcc0db8c9e1da23bbU, 0xb6e3eeeebd9acfc2U, 0xb2b31923f214bcafU, 0xcdd4f5c0f0b88cccU,
  0xecb4c5acd2b4f3e5U, 0xd997fab5ec81c2c2U, 0xf5de151c160311f7U, 0xeee1f0dc360ccfeaU,
  0x24e8ceeadd08dcd8U, 0x5b01af8e3b7c6bfU, 0xc2b52e1dfbf6c2cdU, 0xdaece1e613b6b4d2U,
  0xbcce8ec2d7c216caU, 0xb6eefe96dca4eef8U, 0xdd96213be2ffb1e1U, 0xdcf8fcd7f0d5a6c5U,
  0xddbdb5d9eab12ab4U, 0xd9c5fac4f195e5f9U, 0xcac11931fc31cee4U, 0x61205ed0af9bce3U,
  0x241106bce0fa19c6U, 0xaa5fdfd1f9fe9cfU, 0xdad01830ea25d7b4U, 0xdcf6f6e2eafbe3fcU,
  0xd406b8c4e5e640caU, 0xa800e6fae89e0df2U, 0xd2e02e3be913c4ecU, 0xe918dedbfacf05caU,
  0xd00de4d0efe925ebU, 0x5acf90111b108e7U, 0xe7e53520fc1fd3f6U, 0x13161804e007d7faU,
  0x1e05fa0305e843e4U, 0x24e3d2e42b9c2adeU, 0x1b0d85a5c30d0f0fU, 0xf6ef0f28c41d110fU,
  0xdea0b2512e7d6e0U, 0x17fcf3ffbee20e0dU, 0x17028fa78b230e49U, 0x16052f56120623e1U,
  0x32feed03fe05b5eaU, 0xde020ae8ef43e523U, 0x3cd8cfa9b9031608U, 0xd2d53382f06e534U,
  0x2d02fbeb1924ee1dU, 0x525002212440ef6U, 0xfde6818eddabf813U, 0x13f2ef0f1af1fc19U,
  0xfe14f1f522d2ecf6U, 0x3c2804f1d5fad52aU, 0x10ffc8cf0badf93fU, 0xeae9bc280f3120f2U,
  0x3824a4feed29f819U, 0xf708f0f5e819c70dU, 0x3fe80b090ffb0dfbU, 0xec1ddd010af7f8f2U,
  0xfff6d6f9e807351dU, 0x8ed0f1e00110e22dU, 0x9f0d4f115dc1e00U, 0x261a05d500063206U,
  0x2543c50025f7220eU, 0xf3e84218e91aa007U, 0xd807f7f7fba4dcfbU, 0x8de11050d12f1e1U,
  0x839afde21ecefd7U, 0xcddc16ca4de0aa0fU, 0x6f9151821d1d3c0U, 0xea01afc93abf15eaU,
  0xb5369cd805edfde5U, 0xe0d3050317db9207U, 0x3817b1e0fa1e6322U, 0x2c39342f79332d2aU,
  0x2b65fe616c2ae851U, 0xfb2b4e563d63f654U, 0x1123a8c6d4060f15U, 0x2816e318352634f8U,
  0x2f50cb233e35df22U, 0xd70cf43a2215fc02U, 0xc592eaeb01b3bba8U, 0xc8b8c3c7dfea898fU,
  0x20dec9b3c3b7d6e4U, 0xd0d1bce73c86f59fU, 0xfe420414ed1029f1U, 0x4b04fd4940322523U,
  0x58629c3736624c61U, 0xf3506202555d8c71U, 0x162fd8d50cf32228U, 0xfe1bef222116d027U,
  0xe229b4ec1637162fU, 0xd1fb0fdc44e7f6e4U, 0xc4b7c1e311e5b9d0U, 0xa20abe81c2eccec8U,
  0xcbddd7b4c1c9b9d0U, 0xef9ae6f524bc2eabU, 0x8f811062cdb1ac3U, 0xcd82ec2b1c01fdddU,
  0xa48c72cfe160804U, 0xbde5f6dc0e20a430U, 0x38c4f3e8e5e6e6c5U, 0xe3dac9bae6e49ff4U,
  0xb6df0fadd024dde2U, 0x6efdcfbc6bd09d0U, 0xbc9e0c9fffaf5b7U, 0xd9e1f2a0e3d7b1d5U,
  0xc0b738b2d7eda4f8U, 0x21bbd1c119ad0f95U, 0x9fff4d0fe0bd9d9U, 0xf6f8faf8fcee12edU,
  0xe7e4ede2dec8e618U, 0x5db0003ecf1faf7U, 0xfffdcaa4b40b0ae9U, 0xcf513fee2080703U,
  0x2d419020a15a1ecU, 0x80afceff906f8dfU, 0xb11bbcfa3f7f9f4U, 0xfde2011400ebf811U,
  0xedeb13030325c7fcU, 0x5ee0711fc02fa07U, 0x34e3dce0030aeff0U, 0xc06fd140d06fe06U,
  0x1914fb060eed0f10U, 0xed03230e0023bffaU, 0x14fdaae8d0ee1803U, 0x5fe001427e624f2U,
  0x1a1501391207fa3fU, 0xda031a0de526d317U, 0x212281c5e0ed27f3U, 0x2315180114242f03U,
  0xfc29e9280b1af430U, 0xff290c18e118ee31U, 0xedd2f80ffbdac823U, 0xf2eee1fff5f7fce3U,
  0xeedeef6decd020bU, 0xe60ef9fc15f3c2e2U, 0x1902d8f1f7d3de21U, 0xe5e8100209db18fdU,
  0xe50cd618fbeefcfdU, 0xd91ee9df08ffcefaU, 0x1e07f1d8ebf20810U, 0x909f41df5001afeU,
  0xf802c42ffd00f913U, 0x7240810e710cb18U, 0x2430ddd4d91b0416U, 0x25363153173f532bU,
  0xf31171d3a2eea0eU, 0x38261d0c1d2d0420U, 0xef21fadff2fbfaeeU, 0x1909011cf9f32815U,
  0x1028e80ef1ebb121U, 0x1500f90f0f01e2f0U, 0x4e429f02cebe1b2U, 0xc9d2b2d1dbf0dccdU,
  0xdef3e3d9b7dcfee5U, 0xd9c3d0b3efd5d8daU, 0x1b28d7cdaf120a49U, 0x2c103c383c194a44U,
  0x4135f0322a2ef706U, 0x2d390c2157230029U, 0x20dd7d707d5e8e2U, 0xdac8f1ee0106f802U,
  0xed14e823dfe7a506U, 0xf314ebf13219f3ecU, 0xdf810de4f4c0a0cbU, 0xa7c1abc2c7b9b1dcU,
  0xcaede1c2a6aab8bbU, 0xdbe0b0c510cff1b6U, 0xf52fc0cf0dec112cU, 0x9d7193412311800U,
  0x3600160d2027c90eU, 0xe727faf5422c15edU, 0xfdbafec710cefcf7U, 0xcad1cae1c1eccbdaU,
  0xfde10af6b412a9dcU, 0xb06a6dc0903f8e1U, 0xe69bf3fd10d0ddbfU, 0xa8c9b0b4e9f1b0b1U,
  0xdee600d599c59aeaU, 0xeeeaaecdfdc0fec4U, 0x23d9e9cdedc5f0fdU, 0xa80fc5b5faf4ebefU,
  0xd3b708b2ca00e5deU, 0x301c7d307a90ad9U, 0x1ce4d7c9bb232929U, 0xed0cfcd9f0e4fcf5U,
  0xf8b532fa00e501ccU, 0x2df1fc00f4c4170aU, 0x2930e80fde200a04U, 0x13fa280e152a3324U,
  0x13fe390e341dec1dU, 0x232ef70816e3f8e7U, 0x3a8dfe614b9b3c5U, 0xbb0ded8fd9e5a9d5U,
  0xc181f7bba5c1eb9bU, 0x4e38bd9dcb1f2baU, 0x2703ed0ada2016eeU, 0xfe17031df2010224U,
  0xe9d30fdff50420d1U, 0x9fcee20eee9f9f4U, 0xd3be3f3ea393919U, 0x17370922200c2c2bU,
  0x3e18101f3dfe2b18U, 0x3c0100270706ee1bU, 0x6b90a2d0bf1e3c7U, 0xf4fcdca700e0e302U,
  0xc8d30fd9d3dc02d6U, 0x89d1601e5cd00f0U, 0xff000e15110d27e8U, 0x101911e91adbe7f9U,
  0x3408ea0031121f24U, 0xfed7200a170c001dU, 0xf61c0c1afc0b1e05U, 0x1a0b121e240d0623U,
  0x1b0cf52a1f053934U, 0xe91326f83427f737U, 0xf6c5f5fffcb2ebe9U, 0xb4d5c1d6e4eceaedU,
  0xbee80f06c2e8e4dfU, 0xe8c6d5dd12c6efcaU, 0x1fd4dfdb0eeceef1U, 0xd7afd901edd8f70aU,
  0xd7cd1ce6dbe2fbe1U, 0xf9f8fde9f70feb0aU, 0x2bffd5c7e7ee1928U, 0xde5091e10fa2b1eU,
  0xda0e2e06f313b1e6U, 0x2d27e313150e2c07U, 0xb4ae11ff18d598c3U, 0x81ccb9ea9ed3bfacU,
  0x9ec8e4cf8ab8f9c0U, 0xe1cbb3d5fee7c1a6U, 0x9d3170414fef602U, 0xeccccde800f6eff1U,
  0xaa9b07e6d5eeddcdU, 0x2fe1cd14c0dcd5ceU, 0x4ce30cdbe8f32f09U, 0x38130a13033a110dU,
  0x22bfbf92f2fccf6U, 0xc190131e62425f7U, 0xeebc0f1c1410dae7U, 0xd60ffdeacbfed9e1U,
  0xebebd5e2d3e8f6f6U, 0xfbf5d7d7f8f7db0aU, 0x4da061e092324e2U, 0x16f9c41f17e119f4U,
  0xa2eeb2829d80622U, 0x19040300fb08db2aU, 0x23fdc6f8181a423bU, 0x2efe103a3c09481dU,
  0x3f45e1193723154eU, 0x154039431023f843U, 0xe1e0bca2c7f60f0aU, 0x10ed06fe10ec1002U,
  0xb0705ede503f503U, 0x91cfa240f14de09U, 0x14e7a381b9f50206U, 0x171bfe0fe9131315U,
  0x17011c19fcfc9f11U, 0x161c061ef91024ebU, 0x28269b8fa0052bfeU, 0xfbf82df4f226f11dU,
  0xf40b25090effa1f5U, 0x610df0fe10e0efcU, 0xd9ebc7bbcdf712feU, 0x2e4f0fef6f2f404U,
  0x6fbb60812f0f308U, 0xf92df51b1106bb14U, 0x130da4b1baeb091dU, 0xf11b12140806110fU,
  0x12bf61818140212U, 0xef051006f015d817U, 0x1212a8b2b6de2b25U, 0xf1121a00f3ee0329U,
  0xf62efb021c0508f9U, 0x90a191b1a091915U, 0xe0dbf0e8e7b8f702U, 0xfdf2e1240aedf604U,
  0xf4f6dc08ead7d710U, 0xdb1106feeaedb0e1U, 0xfb02ded9ecdfebeaU, 0xef02f50412c402f7U,
  0xfceac504f8f0020dU, 0xec0ff8f80effdae1U, 0x4f8c3e7dfe30d07U, 0xd7e0e00511f60ef6U,
  0xec10e118f4fa0528U, 0x1101302f60ed7edU, 0x25f4e1d3e8e711ebU, 0x260a191b1709191aU,
  0xf1bf5040304f81cU, 0xf7151406e514d916U, 0xfe13b6a0aedefa20U, 0xfc1d4e3b241e1b1cU,
  0x41402210f29d70fU, 0x1bf8f926e1252018U, 0x1001bfcbcee10509U, 0xe6f91f27151a1521U,
  0x100022060f08eb18U, 0xf916e6141503ff00U, 0xf1f0b5e1c5fe2efdU, 0xf9dbf0061ee90308U,
  0xefffe112fcf5ff18U, 0x1afd11030bd210U, 0xfe0187a3bebafa1eU, 0xbfa200efc0d1bf5U,
  0x1e24010d150cca18U, 0xf616f70510150824U, 0x7e6839ec4dcfc11U, 0xe1caf1f4f7011ad9U,
  0xfbe714f610f1b7e3U, 0xf21ae30d0fe709d6U, 0x2dbec0ef2feec0fU, 0xcdfdaf9f8f4f5e0U,
  0xeaeed7db1af0ed04U, 0xedfae741e2d5d703U, 0xc1697bfffe51106U, 0xad70cfa1f111b1eU,
  0x1a0413fcfbf1f6fdU, 0xf5dc03c204ebecU, 0x30781a4c9e1181aU, 0xdecdeaf0fd002807U,
  0xdfff7e4fe10b1fbU, 0xfc02f00cf3fae4fcU, 0x90f122ae4213e25U, 0xa24171905201702U,
  0x2c2b06f93a091f15U, 0xfa061b1e1417220cU, 0xd0d61820d0f6b1dfU, 0xc9ead1db04ddf40eU,
  0xcbebc50ae0d91ee8U, 0xcd0de6da2c0ff4ecU, 0xe2c61c1cf30dc991U, 0x9deeaca7d29fb0a2U,
  0xa4c5daafb2aef9f4U, 0xc3aae4a500c5c4c5U, 0xfb2811fcae313242U, 0x17124c0af7534c16U,
  0x533f143d1d140139U, 0x80d3c3f722e3f22U, 0xa9122d1ed2f9ec01U, 0xeee9f4d797fae9e4U,
  0xf2f81304e7e914ebU, 0xdb1dceeb35f7cf06U, 0x99bc0617e00fa092U, 0xa20ca08191deb2bbU,
  0xcc9be9cfb2b70ccbU, 0xfd1a8f7e4d6e5bbU, 0xc1d19f1a516164eU, 0x2e1c5a1be7664c0bU,
  0x45452b5635062420U, 0x1550c8297c403d2cU, 0xf3e104edd7e7e2f5U, 0xe511ef0f98100af7U,
  0xd514270cc4d70ed3U, 0xe107ade6d6ee2bf3U, 0xd7a929e6eaf2c8b1U, 0xc40cfcd1a21be002U,
  0xbdbd0e18b7d0ded2U, 0x2300c4d1d4e518c2U, 0x8d3c59ceadef202U, 0xd8f70ac9f10218f5U,
  0xe7fa09b7f715cdddU, 0x3fef0e4ebe9f2d1U, 0x30d981c6d0040012U, 0x5f4f0ebfa28180dU,
  0xbff617c22516a7ecU, 0x140ad704b3fc140eU, 0xef29bcfe207ff18U, 0xeb10d1e7e40b1feeU,
  0xfb0311d107e785e4U, 0x1020e6d0e9e2feebU, 0x1bd0b6ed22eb28faU, 0x1401f41040072807U,
  0xe3fc4fef61ef321U, 0xdd1536d5f713d925U, 0x1900aee00fe52814U, 0x802e8fd25072e17U,
  0xfc2ae5f01b3d230aU, 0xf5402e19ddf6e229U, 0x13fbaeeb05c627f3U, 0xe7fed5fc2f081beeU,
  0xf412c4150719fb0fU, 0xf82011f3f312fe00U, 0xeca6f21f1cc1d9c3U, 0xcac3accaf5d3d0b2U,
  0xb2fedad5b4dc13f8U, 0xc4d431bae2c6d3c9U, 0xfacafd0839e20df0U, 0xdacad5e704bfedc5U,
  0xc6f4efe8ba0118f1U, 0xd1fc00d7b6e2f6dbU, 0xf1c9effa20d9dce4U, 0xcbc4bdd70af3ecc1U,
  0xd1e4cff6d906f403U, 0x9f080fb9c4ccd8d7U, 0xf3159baec7efe30bU, 0xf4d01a0fdc150910U,
  0x1df17fcfde9baf6U, 0xf125da131b10fefbU, 0xfdfbc1999007fb20U, 0x12ed2118d51c0412U,
  0xebe816faf01ab8fcU, 0xff26d71ef4f310f9U, 0x1bf6dbd381fb0121U, 0xf9f019eede1f180aU,
  0xdbf70bfee7f3f9d5U, 0xf618e4f903e102f9U, 0x302aa3efe6d8f611U, 0xf70c0d2119072735U,
  0x2418ba3e131a0015U, 0x49072af445ff34U, 0xf70dc3cdd1eb1214U, 0x170be81712141e0aU,
  0xf93ace190efa18faU, 0xda262224ed2217f5U, 0xeef391e7d81527f3U, 0x62c000308040808U,
  0xee06f50f11f815f8U, 0x42d030902090717U, 0xf805da3411b813fcU, 0xfaf4e214fde61cedU,
  0xfa04cd1f11e23907U, 0xca28fbf0f722d2fcU, 0xe6eed815fbcaf9faU, 0xe82307120ef0f3dbU,
  0xf50eecf60cdb29fdU, 0xcbfdf4f6f713fdf3U, 0xfeedcf19ecfc04d0U, 0xc603ef0010dafffcU,
  0xffdbdd07fafd4ef5U, 0xfbfad70e14eed9d9U, 0xd6bffa0e08edabd4U, 0xa5f6ced4cbcacac6U,
  0xccc5d0c8b7d2e6caU, 0xbebdbccbf6c4e4d7U, 0x2defefafc0adc14U, 0xcdf2c7e703ceffe7U,
  0xc1c3fddddcdf10ddU, 0xeffbde09edd1edd8U, 0x3cefd8e8d4162523U, 0x230d070e111c2c11U,
  0xff1c0219191ef421U, 0x26210d3e03fc0607U, 0xd7a708fc07d1c6e2U, 0x8120bcaec1cba9a2U,
  0xa98cf3aa8cc50da7U, 0xe3a6b1b2eeb2cdd8U, 0x1eed07fcf9271aebU, 0x6e7f1f5dcfc06U,
  0xeedde201ecee03e9U, 0x20f7f015d7e2e4efU, 0x1212d5e0f4141922U, 0x1afe242612281d32U,
  0x431f60d1735f623U, 0x213d0e2cf0250a1bU, 0xf9c1fb2028eef2fcU, 0xde1bd9c9f4ffdcd2U,
  0xb1d806c7e5df14f6U, 0x9dbe3d7f2d304d1U, 0x3e5081c0d101feaU, 0x113f5f20dfef3f7U,
  0xeceaffe9100d2206U, 0x402260312f0f90aU, 0x1f0cd9f1fd0b3133U, 0xa0df51328043f28U,
  0x272dee0d3425f019U, 0x1b311a230510ea06U, 0xcac4ff1b1500d6c8U, 0xf023daccfed6f7dbU,
  0xe00be3e5cdd1f709U, 0xf1ce12bdd1ede5c7U, 0xc0e5ee0a09ccae92U, 0xa902bde114d095ddU,
  0xdc0b93b4e0c3f810U, 0xb2d21cbd15fdc6e6U, 0xa5ec1d1630e092abU, 0x9ac3c5d7cc939ac0U,
  0xc3d781e7ddb7edebU, 0x9fa714b0aaccb8feU, 0xfaee1ef0c949dd08U, 0x203ff908e510ed0cU,
  0xd90a0a1be7f527edU, 0x1afedd16f8f31603U, 0xd306faecf436e8deU, 0x1212fdf7ef2cf808U,
  0x2313ebe308e006f6U, 0xfb01f81627dc020eU, 0xd6de0aedf208d1e9U, 0xe6c9f1e0ebf5d6e4U,
  0xe5dbe3d1f3da04dbU, 0xeee6d912d3b7f3e5U, 0x290602e9a831173bU, 0x352d2110fe1f2005U,
  0xeb2715163615080aU, 0x133a00371b322830U, 0x42b03f0ad2b151aU, 0x3f1d1f0bf746172dU,
  0x3223162f45091615U, 0x34111a212a131716U, 0xf320081fde120515U, 0xde91823fd272904U,
  0x31231a0822101f0dU, 0x11111625151efcU, 0xbee7090a0cdea781U, 0xd40ce1ede1b5a7a2U,
  0xcee7a1f3e9e62c12U, 0xbcaef4abf2aaeb0dU, 0xf6e9090de923ebf9U, 0xfe28e30315bdd9d1U,
  0xffe814dee0bf0ce7U, 0x1fb608ef039c00f9U, 0xf437e5eef8203afeU, 0x2c1c26ed20270511U,
  0x433201dc1718f74eU, 0xe901282c2f0a07eeU, 0xc2ff1105f816b6d7U, 0xbf20e4d0b8ca96dbU,
  0xc007c8e0fba24ae3U, 0xd3c7c6bb0fd017e9U, 0xf602191cce44db0aU, 0x22c1502f6fcfe15U,
  0x1ae80ec60bd136dfU, 0x29bd0604fdb302fdU, 0xe71ef426d9131122U, 0xfc192cf70f20e20fU,
  0x3b0324d91eeb1f2eU, 0x5eb17ef60170421U, 0xd0fa0605d825f1edU, 0xe042d406e8f2e9bfU,
  0xe1edbcf3f9e93407U, 0xd1c80ef6e9fc2afbU, 0xf7f20426d84f1129U, 0x454c080b12120ae4U,
  0xc150d2625de31f4U, 0x15f81aed15de08f5U, 0xd9272feeeb040d32U, 0x23071e040532df27U,
  0x3e2500ecf1f3141aU, 0x11ec1df7460e00f7U, 0x190a0a1026d41215U, 0x164c2917e6f3182cU,
  0xf414321f18fd4000U, 0xfa1a1b2fe6381615U, 0xd22c0506f3b8efe2U, 0xef9dde7e905edd6U,
  0x3a1b0bf903e5f818U, 0xf40127e21808c61dU, 0xb7efd8d31cb3a6e1U, 0xc6f89ed5e7b6aad4U,
  0xfabdc483cbcf2c04U, 0x85b7fbc6f9b6f3dcU, 0x26fcfe20f71a2a19U, 0x3c115051df36351fU,
  0xf90f5410460421f3U, 0xe3150e54263e3e2aU, 0xdc130c0fe9f1dadbU, 0x28eee7cbd11bd106U,
  0xe1ff09e0d1d4d0adU, 0xe0cfaece2d408faU, 0xb0c3e3d21fe0a8b0U, 0xbbe39281c2eb86ceU,
  0xad810f92cba1e3bbU, 0xca92d5b2d7aee69aU, 0x2013200cf5ff4301U, 0x28155d1dec370c4cU,
  0x3f153b11533b2d2fU, 0xe71cd82ff4401b39U, 0x193cf8f61ae02915U, 0xfe262818302a1debU,
  0xe6110efa2413dadeU, 0x1e1e0829e9552b10U, 0x7eb2de514ca05c1U, 0xf6d11be3fc02e2ecU,
  0xef2a3cf6fb33e80fU, 0xeb0a19f9f0e12c1fU, 0x91d0fd88f322512U, 0x1273329150a0309U,
  0x290d021521020fd6U, 0xae6d137f2d92d03U, 0x2a2e01f78109e61cU, 0x15191303df1f2a1dU,
  0x18031dcce92004ecU, 0xf06df02f6d21dfcU, 0x190be1c8b7d82316U, 0xadb270100f9f909U,
  0xdef82bee18f6e5bfU, 0xe405b81fc9ec1df2U, 0xfef19f4a8170cfbU, 0xfe0504f50120110cU,
  0x1ff06eff1ff2ef5U, 0x111aef1c03c6fd21U, 0xfe25d80dc624fff9U, 0xf4261df9f8011602U,
  0x1afceef509fe07e4U, 0x3514f5efebe52a1cU, 0x1aefdbc695dc2b03U, 0x1013f0fa02d81e1dU,
  0xe2f827f7ee30e808U, 0x9e8dadfd4f523faU, 0xde90f013133f7fbU, 0xdb13e8b2f9e7f3f7U,
  0xd2f1eace100325e7U, 0x4defae0f8c20f08U, 0xf5d5f61405e000efU, 0xeffaffd71502070dU,
  0x1de7cff2e2d7fee7U, 0xd5eff00115c200eeU, 0x2b9ccbadde011f6U, 0xefd6d6e1f9fb00fdU,
  0xfdfbf7dcce16dafaU, 0xc5f3f5f3d8f0eaf1U, 0x1ff1ede1f8d40b00U, 0x2bfd1e123ced1419U,
  0xf2ceefe2a3f1d39U, 0xd800430cdf18c71fU, 0x262b060e231a0d35U, 0x3a002b33181f082aU,
  0x205ca2e280a245aU, 0xc0024232f12fe045U, 0x5040e140b080cdbU, 0x380cf50cf60f0fU,
  0xff1ab73c29f83e29U, 0xc9f32200081ff038U, 0xb0c80ae4fdd9bbecU, 0xf1ecc9dd1fb7d6f2U,
  0x514eaeedaf1f104U, 0xa1d013ebc8f3c8eeU, 0x93be1614efcf00d3U, 0xdb23bf0a1d96cefaU,
  0xc5fab72df1fd172fU, 0xa4f9ecc6f922d1ddU, 0xcaff31121510fdf2U, 0xdf46ef1009c5edcbU,
  0x7ea811bddee270dU, 0xc7f21010f225df09U, 0xc9d30ae8e0ecf1f5U, 0xd0eed614ebcc03beU,
  0xdcf3eafed5ddf8f7U, 0xd80cdff6ff12d3d9U, 0xe4c8180de300faf1U, 0xafdfa07e0fbfddcU,
  0xceeadff2f8f522f9U, 0xc3f312e8d723e6daU, 0xf4e70b11de07d013U, 0x212f013507184902U,
  0x1325c30e21104e04U, 0xd8f70e212510e62bU, 0x3edf0ffe920ea29U, 0x15f8f8aecbf1f3e5U,
  0x20e4f0f1f90d0babU, 0xf603d202e01217dcU, 0x4008e405b93bf227U, 0x2030e3e2e80fdb01U,
  0xd6173deef6fa0de2U, 0x32f3ed1aedd527eeU, 0x401d512fe1bdde2U, 0x150c0ac2e735dbffU,
  0x16d912c7e404fcf8U, 0x915ddfb01f001e3U, 0x12f4d6151c1d48e1U, 0xfd051bfb1cf50d07U,
  0x3130db0e150725feU, 0xe2f64336e605e305U, 0xfc420ef700232402U, 0x204b273a5a0f2111U,
  0x4e4ede2726e22d13U, 0xf5013f2afc0efc26U, 0xe533cdf80cfa14e7U, 0x2f56270a311003f5U,
  0x103cd3f0400c2e38U, 0xe7d10f39193b0720U, 0xbcd619fafd27c8d3U, 0xee0cefd2b9cfd89cU,
  0xd401a8bedfb30907U, 0xc7cb1de11015110dU, 0x93f00a3df5efc2c6U, 0xdb2d06fee3b4c5beU,
  0xc0e3a2dcf1bb1be1U, 0xbec512a6042dd3e3U, 0x81eb2448fae2e59fU, 0xc91ae61be7aee5c5U,
  0xbfedb0da2c9e3f3aU, 0xfcb325b01936e72cU, 0xe0f60c0610e125baU, 0xf5f5f80404cc170fU,
  0x1d00a210fd010b03U, 0xef1a10fbef17f31aU, 0xf1e4fa0a16e409d2U, 0x1a10f9ef17af2c0bU,
  0x1409c21a07131316U, 0xd3352bf0ee01f9fbU, 0xf8ed140fed1a13d9U, 0x21403101dea29f6U,
  0xf61ecf03f3032af4U, 0xf71110100a09fa16U, 0xb2db1af60000c4b1U, 0xef00d8c6d2b0aee4U,
  0xebd6b2b8e8ccf6dbU, 0xe9b5e49df21c05d7U, 0xabc8201ff40e8e90U, 0xcb00ddbcc999d7adU,
  0xb7dcb7b9c3ce03e1U, 0xddb4e3cfd2f2f0dbU, 0xd3d629f7eefbcdbbU, 0xcd25e9e0118dddceU,
  0xa4e2f5e3e4d405efU, 0xf6c9e2be02c8f4efU, 0x9bf3372e0cfbb7bfU, 0xc6e5c5bbbfaf9cb5U,
  0xd6b6ae81deaa1d15U, 0xdbb4d9abf2e906d5U, 0x9bd32f0715ed88e6U, 0xdef7ccbfdca4aca4U,
  0xd6dfb29fe4a019ddU, 0xd6d5e2beedd915eaU, 0xdccb1e2722eecbb7U, 0xbdf7deb9efbbae98U,
  0xbff8bc9dc9be1fd9U, 0xe2aee1dbffe3fdfeU, 0xf8eee9e11e140c21U, 0xfcf4071529052503U,
  0x213a0018191ae50aU, 0xec08290c2ef0ebffU, 0x2d0e2f3fefe00U, 0xf60513f7300a1d0cU,
  0x240e0f00fd14a1efU, 0x1406e40300fdf5efU, 0x5d4d1a7e8fef5fdU, 0x1f21beee702171bU,
  0x10222cf5dd0db3d6U, 0x1424cddc08f320e5U, 0x2be4e2b1dff9ff0dU, 0xf0f3eaca03dc0301U,
  0x16d206ead8f7aafdU, 0x1600df04d3de0cd7U, 0x30adc9c96eb043bU, 0xf027f406f200201bU,
  0x10000dfb080799cdU, 0x142bd8ebf6f902f3U, 0x2cfb818395ffececU, 0xf612310ed92cec17U,
  0x4023ffbfa0ea0f4U, 0x2a11a8f5b8d937e6U, 0x17bed3c8e6edf5ffU, 0xc7f4c5a710f3e0deU,
  0xdaf3e8cfcb1baee3U, 0xfefbecf9c9f1ecd9U, 0x2be697aeb0fe1c23U, 0xfb15f5fcd9fb0917U,
  0xf21ff3ee08f7bbdeU, 0xfdf0110fcbe20f00U, 0x21dd93c1bbfe2408U, 0x23ff13e4f71b02f9U,
  0xd92223fb221f8fdbU, 0xf21cf505b60f0fd2U, 0xe0ef7d2efeeed33U, 0x110b1720f624fb1fU,
  0x9252e113414e2e0U, 0xde25f212150f16f8U, 0x9c01de62ccbd8d7U, 0xd9dcd4e7fef2e4f8U,
  0xf3eff3ccc5dbe310U, 0xee21eaeeadd1ece3U, 0xe09451602507a7d0U, 0xd10fa8cc03e9ed07U,
  0xebb1d2bfa8af56c1U, 0xecbfff8913b6eccbU, 0x1cf4aea2bb1d6221U, 0x4626150616505948U,
  0xf3017ee0d3991f6U, 0x34151119e40824f9U, 0x1bd09ab397f12512U, 0x21ecd8def1080208U,
  0xd31428bdc10ed4dbU, 0xf011f0ebbb051fd0U, 0xf8c7f908c005e704U, 0xdc18c6a4faeed1dfU,
  0xfff013a2b7ca3dc9U, 0xf9db9fcc02a71fcaU, 0x3f1895abdf0d4812U, 0xd151a1223384840U,
  0x14240cff1447beecU, 0x52a302ae917161bU, 0x51ee98818f0c2b1fU, 0xf3281edf0e3339f3U,
  0xfc492906e82cda10U, 0x2b1b0a15d9f6fe23U, 0x14d5bf0db51005ebU, 0xf63914c82216efe9U,
  0x2b090afaf5e80cd8U, 0xfe0f1b11ebca12e5U, 0x2bf7f11213f0d012U, 0x1c110e00e8020de0U,
  0x1dd4f60a24eedf06U, 0x23fd09faf9f317fcU, 0xf4e3d0ffe73116feU, 0x2b421734d6f30528U,
  0x17e1ed10e4e9b319U, 0x2ddf001d1d0605U, 0xaeff9e2d5fa1003U, 0x15e8f322e205ed01U,
  0x22ceede50ae5f7f3U, 0xf0d5f9001ce0f7c9U, 0x4c162a0b0aed021aU, 0x470b1c39131f3844U,
  0x1649b035141afe27U, 0xf350239fa06e82bU, 0xf610fc031ed81c25U, 0x3c26030125171d31U,
  0xf6f0812c0b261e46U, 0xd13114fd1a30d956U, 0xd70b11f9edc80be0U, 0x21eafacbe0f4fee1U,
  0xece7c4d9092e1e3bU, 0xc0edfce628fad513U, 0xeb0a16dcdbe7e228U, 0x19ed170fe7f531ebU,
  0xf228a3f2ea0af530U, 0xb113fb0a174dd107U, 0xa8f82fe1f9c701ebU, 0xdac7c4cbded507cfU,
  0xcae8b51feed6f125U, 0x9cf8ebe00a27ace5U, 0x9e40a0515f7f6d8U, 0xe0b9f7f2fed6ecc0U,
  0xbced98e3f3df1af5U, 0xb1db02eaf2f1e6ffU, 0x2926e217ea1a2d22U, 0x2e2d5517203737e7U,
  0x4249fc221e1bdb2bU, 0x16213330f81ef030U, 0xfa1c0bfaee0edcddU, 0x5dff61b04201bcfU,
  0x2818adf5cd160b25U, 0xea1c0701fe061505U, 0xf8b8f414f6fb2adbU, 0xd510d7d2231cd7beU,
  0xb314b4a5d8e40a32U, 0xd00523230c00ddf3U, 0xf133391b132621e1U, 0x48e71c2cf40ef4dbU,
  0x491af6d809eb1829U, 0xdef4111c0e04022bU, 0xa90014140bd8cc90U, 0xf2cdd9cae5efb1b9U,
  0xfcefaca1f5f0f60cU, 0x82c2f7f80d05d709U, 0xb8c5ef120ee7e195U, 0xf9cec1b00aebb98dU,
  0x9c1088b1d002080fU, 0x87ce1f17ecfdd9f5U, 0xb40b33f70dfde3d5U, 0x440b0d070207c7d6U,
  0x19efc8dd2ac82f17U, 0xa3bb36d62a18e418U, 0xdcc81b10f9ed8ac5U, 0xeee8d6b1c98cb48aU,
  0xafcadb95e7c2efdcU, 0xad9214ecdff2e00eU, 0xebdf2b151205b5b8U, 0xebdce5affab1a5a6U,
  0xadd4d8b4e10407ffU, 0xbd8122e8b9dac605U, 0xfffffc1100000f5eU, 0xfffffe5800001b1cU,
  0xfffffc12ffffecbfU, 0xffffeb69ffffffc8U, 0xfffff30200000b8dU, 0xfffffd45fffffc75U,
  0xa11000004dfU, 0xfffff229fffff8a4U, 0xdf4fffff236U, 0xffffe493ffffd6caU,
  0x9a2ffffe95eU, 0xffffec7d000005b0U, 0x49ffffffe6dU, 0xfffff30a00000cd5U,
  0x31affffd00eU, 0x9ccffffff1cU, 0xe88ffffef3cU, 0x1b2300000c05U,
  0xffffd320ffffe5e7U, 0xfffff6d4fffff115U, 0xffffdf5b000014ffU, 0xfffffd0400000fcdU,
  0x47900000c73U, 0xfffff3c7ffffff82U, 0xec7fffff707U, 0xfffff80d000013f5U,
  0x2ff00000731U, 0xffffec78000003bcU, 0xfffffb71fffff7efU, 0x102bfffff1e0U,
  0x16bc00000fe9U, 0xfffffaa1fffffd61U, 0x13ec13120d220cf7U, 0x62306ed25e70ef4U,
  0x101b041c13eee10aU, 0xf3fb13df0900fce7U, 0xfefa0d26052bfe0eU, 0x1021fa151be008d4U,
  0x3f0d925060ad9f9U, 0xfe202319e01f1510U, 0x9ef0205e604f62dU, 0xe0ee020af1eef0f7U,
  0x91001000ae914feU, 0x60506fbf919eef3U, 0xafa02fbf7151100U, 0xf3fddc07f52b15e7U,
  0xaf7fcdf0a09f00bU, 0x21407ecfeef020aU, 0x1f7f805fb19061bU, 0x91d00deead41fe7U,
  0x18f509f700030df5U, 0x17f5f50f06311504U, 0xf30710e3e1f714ffU, 0xfa0d0e05e51d12ffU,
  0xebebfcfe09f7def1U, 0xf8edd4f0e110eeedU, 0xedfb0404f3f0d8ffU, 0xdc080dd3eaf6f505U,
  0xe72315fb00d223f5U, 0x230d1900e0e206fcU, 0xf8f3e718f60f16fdU, 0xefe7fd1e0418ffceU,
  0x1c0306da04dd2adbU, 0x1507f1f3d3fefaf3U, 0xdef803de24f40fU, 0xe2eb00dde5d1c713U,
  0xf31a07edeff307e7U, 0xeaf8def6e809f4e8U, 0xfeed9fbece0f401U, 0xcd1719ecf216dcc3U,
  0xe8ed0724ef08f4ffU, 0xf0feff09e9fb0a01U, 0xf5fa0ccd0f15e8ecU, 0xf91e19bbf5eaf001U,
  0xfd0ed708fef1f4f5U, 0x2108e0e0f2f3f70dU, 0x801dff4e602f101U, 0x81108efd6f302d9U,
  0xe1e9e522ff16f80eU, 0xe5d2e902c8e6f903U, 0x941efe5030b030fU, 0x3f20dda17dc1610U,
  0xf01cfb2ded121a08U, 0x1d0907052215ed1cU, 0x19f8030adc170f0cU, 0x101b0d0608f7030aU,
  0xfa01fb07fcfa0cfdU, 0x9fff814e8011702U, 0x19e30fded2ef06ffU, 0xded142303f6f4d7U,
  0xf3d0e4081520de14U, 0xe906e911ef0eedd9U, 0x2bf7fd11f31105f8U, 0xbcef6f4fc1afafeU,
  0x1304fad6f5e8f4fbU, 0xf8f41cfbfa070afeU, 0xfbfb14181df9080eU, 0xf6f8f5ebfcfa0dddU,
  0x5f0010900f7f613U, 0xf8131f04e13911dbU, 0xe801fa0433cd27ebU, 0xf2002524f00c03fcU,
  0x2c3b141cf9c812efU, 0xe6f9d5ee0f0500f7U, 0x52df0f2e2ffef02U, 0x10ff250911fde7feU,
  0x16fff6f106ebe8dfU, 0xf6f924f7ed160df5U, 0xf9fb06fae1dd0ae8U, 0xe7070818ff18f5d3U,
  0x311071a000308eeU, 0x1a02daedc4ffd6f5U, 0x17f7eff6d904f3f8U, 0xec0afff7eefdf6eaU,
  0xfcd808e4ede3f0e9U, 0xebdb04e1f3d5fee0U, 0x28e0eef7d4effbd6U, 0xdff605f603fde8deU,
  0xbfaf2ffdcdbfff5U, 0xf3fc1907d6b8d411U, 0xf5d2eaf0e82711e4U, 0xfe1309c9f4c1f1fdU,
  0xede9f3f40ff8040dU, 0x20bde8fafecefad9U, 0xf0f5e8d5c1f6f9edU, 0xe20912d7e5c1e7ddU,
  0xefe30301ed00e80aU, 0xdfe30028d6d5e7faU, 0x900e8071d000cf1U, 0xf9efeeef22ce14f1U,
  0xcf124f50907180bU, 0x10f8e3052ce40be0U, 0x7200b09050303f6U, 0x1807110cf4d41e0bU,
  0xf105201e011616f7U, 0xd7110113f826f203U, 0x6170005e906ffe4U, 0x40d00e4e8070e06U,
  0x412001224090921U, 0x904f10424ea04ecU, 0xfcf8340108f5f502U, 0x15f509fe101719f8U,
  0xeef4edf108fce805U, 0xf0fafafb110ed7f9U, 0xfd181206fcf90924U, 0x2ee06e6fc10fbf2U,
  0xfb0317f9fc1a0203U, 0xb041f11f4060325U, 0x301f720fa210d13U, 0x1cdf0a1b1c0e11feU,
  0xb0cf2f212e7f304U, 0x231705dcf3011604U, 0xfe0dc6f200ff0a00U, 0x1f18faff0d3322f5U,
  0xfef4fdf902fd04d2U, 0xeb15f3f612130feeU, 0x1604f8d3eeef07f3U, 0xf1180a061d08f9e4U,
  0xf723032207e9f6e7U, 0x706cde6fff9f10bU, 0x2afefe10f03b13f4U, 0xdeeb0ef503d2f509U,
  0xf8140afc05f00bf7U, 0x3f9e00615e403f8U, 0xf7261d0ed7e8de0fU, 0x9eee0da0af6efc3U,
  0x18d813e30b1ce2fbU, 0x6f30917ec13fe07U, 0xf7e1ea0e080ef804U, 0xcdf912ed1dec0211U,
  0xf70ef0f4e6d534e7U, 0x14e6f703fdedda03U, 0xfe21eafdd0f1d31aU, 0xe9fcffee0b0106adU,
  0x5deeac7131feb01U, 0xe9191f10cd0ef6f3U, 0x31e1209f70ff703U, 0xf7090e0af70ccbcfU,
  0x6f9da16f3f1f807U, 0xf030fcf505030d09U, 0x19de0916dd080cfdU, 0xefebf221d217d90aU,
  0x14ee08e5eecd110dU, 0xfe7040915f110efU, 0xfce5faeff80b101dU, 0x5eaf7f2e6170ddcU,
  0x8f014fd1d1becffU, 0xbfdf7f40af708e8U, 0x2faebeff7e50113U, 0x1de5fe08f508060aU,
  0xfe09ff22edc50506U, 0xff0beefc15e802f0U, 0xc28f4edffd2ff4dU, 0xef41a0603280affU,
  0x16f702dbf507fe08U, 0xf4f70efee4181126U, 0x8fde71509ff2416U, 0xfd0e0515ea041611U,
  0xfb1c17f90bdd05f7U, 0x271bfce32011fbffU, 0x517d1f91af6e1e6U, 0x21f6e8090237e9ecU,
  0x2cfbd6dbdaf9f5d3U, 0x1128ebe208170f1dU, 0xe6f3e5f21bdbf52bU, 0xee0f13efedc1e6feU,
  0xfd22f602eabc0dcfU, 0x3200df021e1a17fcU, 0x1afefc07eb0700ecU, 0xef0107eaf022f4e2U,
  0xfeedefd0edddffeU, 0x220a0bfce6e60d17U, 0xcf205ec0df2e909U, 0xf5eee3ce03faeeeaU,
  0x8fdeff4fb010412U, 0xa30f90b190a031cU, 0x1b307041d1b1bd9U, 0xe80a01f80902d50eU,
  0xf0ea0608f9cffed4U, 0xe6e6fbecf6daedc9U, 0xf7e906e9d7b7d7e0U, 0xd2ed02c3fbf9decdU,
  0x1f716c6dec3fbd6U, 0x6f7f827feddec1cU, 0x19dc181aedf9eafaU, 0xd7fde1f609fff7b9U,
  0xebb70a0c0efccf13U, 0xe0f32d160ee6ed01U, 0xe7fcd70a1ad8e5f8U, 0xf9d3de07f701f318U,
  0x10faeec91ae10c0cU, 0xeef4f61c18d7f314U, 0xff0a0519d3eeff1fU, 0x1305e1e2e21ce9e3U,
  0xdfe718f917111bU, 0xd6fb2419030d07d9U, 0x4dafdeb04e7fcd6U, 0xe3070f1afc0c19U,
  0xfefbeb07f9d20ff0U, 0xf71f09fe03e4e4e2U, 0xf904dd0f1ee0f414U, 0x1201de0f221c10caU,
  0xef1ef15db01f0e7U, 0xf3e9120709f6fff6U, 0xf8e8fcf933e42127U, 0xef09d802d7fe1a25U,
  0x200c07f500e10fd8U, 0x24f412f333f7f6f0U, 0xf50f090ae9f0d9f0U, 0x240bf624e422d9efU,
  0x8fff203f0ecc1ddU, 0xf0f408ff06100720U, 0xef02ddf50dcff71eU, 0xfc01dae5f8eeda0bU,
  0x6f3f4e7fadbf7ecU, 0x2af1fefb17031ef9U, 0x9e5de0cfb01eae0U, 0xfafaf4130012e0fdU,
  0xe000fd01f3ceeaU, 0xf001ebd2f5d90809U, 0xfaff08ea00feU, 0x6f4fce1e6ebee09U,
  0xe1d09f2e0e405edU, 0x406ecfa11121307U, 0xe3dafcfc063bd1f8U, 0x82721dc0119eaf8U,
  0x9e1f0090c05f31aU, 0xfafaebefe9f40ceaU, 0xe6fc09e9f6f8d0f6U, 0x130e08ed17d7f8f0U,
  0xff3050818fa1bU, 0x1312f207fa0bdc1aU, 0x16f1222bf5eb0dfeU, 0xd6fdf3eddac8171fU,
  0x307fe060a100713U, 0x1af00808eabff000U, 0x70bf11df1090af7U, 0x3cffd04090d06e0U,
  0xffe218d616fde700U, 0xea163c1af8ceeaeeU, 0xf009fc04ccf50e06U, 0xe81004e1cf1cfb1aU,
  0xff18040ef6f312faU, 0x2fed0c0d0d2af612U, 0xfa0822f4fbfd04ffU, 0xf8ecf414131624ebU,
  0x706fbd5fee80cf5U, 0xe512f3dfe201e6fcU, 0xd113e1f6f104fe0bU, 0xe6ddfc2feb18d5ffU,
  0xe204dcead5f1fff2U, 0x7e71cf7d3f0f221U, 0xc2dac9fa2ae544f7U, 0xdcc6d02ae52c0407U,
  0xfe303dbd8e931e2U, 0x2bebf4ebfdebfdfcU, 0xe405eeb603ee06f6U, 0x708f61ffd27e710U,
  0xece3daf4e0e7fdd9U, 0xf8d7bcd8fcf1e7f1U, 0xf3e9ecf010dcfb02U, 0xe6ffe5b9edcbd40eU,
  0xffdfede4e2e1e6deU, 0x1ae1f6251eda0a09U, 0x2df17f806f1fcf3U, 0xe90c0e0a0e0ff30fU,
  0xa07e4f3fff8070bU, 0xfdd5eeeefa11f5e0U, 0x25eef5e7ffe21608U, 0xfefb0fd7f1e1d102U,
  0x16f0fcfdf1fbe7f4U, 0xeefa2fe70fe60504U, 0x13001709e71e34feU, 0x1d1411ea09f7f90bU,
  0xed02e4f8000ad709U, 0xf6f3e6fa12d108feU, 0xcf813eff00bd5f9U, 0x3fa00e4faf8f7dfU,
  0xfd03170914feee07U, 0xefda0207dfc1eefaU, 0xff16fce7120008f8U, 0x1cfd13070916ef04U,
  0xf20cf70601f7edf7U, 0x15e60504eae801ffU, 0x90906f7fc01ebf7U, 0xf8fb160601ecebfcU,
  0xf506df2315eef816U, 0xff060915faf2d6faU, 0x4f2ff200902fdcfU, 0x7041dfd0cfe110fU,
  0xfcfbfd051801f8efU, 0xeaf9d5f7fc07f9eeU, 0xe1000fd022ce513U, 0x151cd3eecdf709U,
  0xe5ff0a120c0cdff5U, 0xfcecdff517061503U, 0x1f15fd15fdfb0fecU, 0xf50e040006f81112U,
  0xbf2060304ef0a11U, 0xea03092305f00214U, 0x3e611faf50a15f3U, 0xf8d905160402f602U,
  0x1def15f21016060fU, 0xcfb1001130616feU, 0x803191105f6ff05U, 0xf208f104151e21f3U,
  0x6f4030df6ee0114U, 0xfd080d22fefdf50fU, 0x1e0911fb2921ed0bU, 0xf8f3ef0d00e0f410U,
  0x18f512fcfc16210bU, 0xd0614f711f50ff3U, 0x2fb05f50208edU, 0x1bf600fdf5f00f1aU,
  0xe0ffc0a17250100U, 0xbfbebec131407e6U, 0xef1109f707020afcU, 0x101eeff909f1fff9U,
  0xff07f80d03f30af0U, 0x604edf72feef7faU, 0x1813ff00f60f06ecU, 0x1fde6f8060d1301U,
  0x123071e0a1b11f2U, 0x12fc03f0fdfe082fU, 0x300013e621f529U, 0x2e12f3ff15120d0bU,
  0x109faf8010af40bU, 0xf6f9eefa0a0b070cU, 0x13ea05fb12ecf9feU, 0xf6fddd21f4fcf812U,
  0xe6e80812f101f3e8U, 0xd2edf2f9040ae3f1U, 0xebf91215faeffad9U, 0xf8f0f8e2f203f9ecU,
  0xcf606ec03edfc0dU, 0xfcfbf40bf6dad9f6U, 0xf8e62cef0ff304daU, 0x10170238e8e4f71fU,
  0x202fe26f8eb03e8U, 0xd01fc000002fffcU, 0xf30a05f8fafb05e9U, 0xf7f7fe00ffd0faecU,
  0xfff3d0ff0301d80bU, 0xf1fafdfd0e04eff5U, 0x140e080dfd1ce6dcU, 0x140e08ebf605fafcU,
  0x1212091914fffdfdU, 0x14f2d31806e60b05U, 0x514031bfb0ddf14U, 0xadf1a0617e8fcf7U,
  0xe705d5e70efddf13U, 0xfbf3dbe7130cfb09U, 0x2fd022206edf7fbU, 0xd4fa04f108070a05U,
  0x101d220c2000f112U, 0xec1213fdf417250cU, 0x160600080be6f1f8U, 0xeffe8f322eb081eU,
  0xbf40ace180a0209U, 0xd0f1801fdfe10fdU, 0x110b0a0300fd0ef2U, 0x3ec0af3f7250712U,
  0xce7eeeaf5fc0ce6U, 0x17070d120510f8U, 0xfb150e040c01e908U, 0x140e141b07fafc17U,
  0x2eefd15fff60302U, 0xeafbe00f010001U, 0x1f0ffd0800f009fbU, 0x11ed02f4ebde07f1U,
  0x20d1400130cfa16U, 0xfa0ef917ebf6f5f2U, 0xff0600160a06f808U, 0xe05f8fcf9091715U,
  0xdb01e0e807e7e619U, 0x1cfe05000ef1fc01U, 0xf300e8020eeceaceU, 0xf9defd24e603f117U,
  0xe507f108f915f609U, 0xf8e90d0316e7e6U, 0xe10bd008eaeedcf0U, 0xcf2dcf5f705f8faU,
  0xe9fcbced0f11f4ffU, 0x1001ddf1f7fdfbf4U, 0x9f51716e1ed0decU, 0xf90004120de106fdU,
  0xffd3020febf1eb02U, 0xe5f6fdfd080bf2f2U, 0xf9fee8170eda15fdU, 0xfc33e212f8080aeaU,
  0xf2eff007fc0de9ffU, 0xe8f0e60d11ec0df1U, 0xfe060b0adbf7230aU, 0x611f213f2fbf2e9U,
  0x1804051e0214070bU, 0x802fc0cebe010f1U, 0x1dbfb0fe6f4f5eeU, 0x805f6f6d90ff1fcU,
  0xf0fbe5ea04f0ebe2U, 0x6091003fdd8f817U, 0xf509f3f3fddedd0cU, 0xeae5e814d0fbd302U,
  0xfe13e6100af91500U, 0x60501f9ddd7e9fcU, 0xe1f1dcfffc03d424U, 0xf0edf7f7e9050415U,
  0xf9f6f6f302d0fdfcU, 0x2a0ee4f812e60b05U, 0xe719ebf2dff1ccf4U, 0xd1d7041bfd02e019U,
  0xe107e2eeda0b0e02U, 0x15eff3f1e60ffc05U, 0xc215e8011012f5e8U, 0xfae2fb08d21c0321U,
  0x2f305fbfad117f5U, 0xf60aede40ef8f2ebU, 0xedf1fce10118daf5U, 0xf8fa08ebd508e200U,
  0xdf04ebfcf0f2edf2U, 0xf207e9d1e708ecf3U, 0xe3f9db031004def2U, 0x411ecf7e7010516U,
  0xcefbcbf60007f103U, 0x6f3bd0916f4fbf8U, 0xd6d4dfe911f9f6feU, 0x1ae4f82211fe1112U,
  0xead600f000eff2dcU, 0x9f8e2f5080bf6efU, 0xd8e9f1dd0deafeefU, 0x22e1ff0f4daecf3U,
  0xcb0eed04f90ec7f4U, 0x604d4f5fefcffeaU, 0x1fd1ee09f814f1ebU, 0xe01223f61d050c1cU,
  0xf8fcdc12010cc9feU, 0xf9fcea22080aebf5U, 0x10140cda25fae0fcU, 0x619feeb18fe0820U,
  0xffeb071312f6d1f6U, 0xf204fef4f4f6f303U, 0xbf612f8e3eb0d08U, 0xdd020affc9dd0fffU,
  0x80a1c0529f2e017U, 0xd4dcee0e2000fcdcU, 0x150b2315f5fcf306U, 0xbede7f6131818f9U,
  0xe6db11f4220bffffU, 0xcb1a03fbeafbf0f4U, 0x150d26fbe1ec0ef8U, 0xf51bf010df16f80bU,
  0xd9d9ec1422f8e621U, 0xd7cd13ff0a03ebf9U, 0xbebee08fdff1cedU, 0xeee8e508f901f602U,
  0x1de329fe0fdd14edU, 0xe5fe2901dcf3bb08U, 0xbd70fea03f0e107U, 0xe8f1d5fef500fae6U,
  0xd6e7f0fdd9e3e1f5U, 0xd0e1f8f3d904efe3U, 0x8cadede11f119cfU, 0xf905cc0cd100e0f8U,
  0x9fe0a01eed62af1U, 0xe4db09ebf9c7f2fcU, 0xfbd018eed51705ffU, 0xf91be7faf4ecded5U,
  0xded2e1f8c3f0d2feU, 0xe20003f6d809f4ceU, 0xfbdf00e7fedef9e3U, 0xd61303dddaf7db1fU,
  0xfef71701ddfbe3feU, 0xdedc2105e9edd4faU, 0xfee1dfdb07f9f6e0U, 0xef2edecfdd2e5ddU,
  0xf70cd8e6f2ed0207U, 0x15e6d1db170adbe2U, 0xf5f9e4f0ea02200bU, 0x4e817fdf9fd0ed9U,
  0xcce6d41dee1cdae8U, 0xe5e9f803cedefcdaU, 0xf90305e3effc0fffU, 0xcafe16e8e819dc18U,
  0xeb12f70df10b0bffU, 0x27fbf4ecf00cd211U, 0x1608e90e00201909U, 0xde6f7f220fa11f4U,
  0xdbf507e809f0f91cU, 0xf30512f8e0000fe9U, 0xdc22fefcf11de4f8U, 0xdcdf07e005fcec11U,
  0xd612fef7fdf120f1U, 0x1ae6f5fd0ed9d618U, 0xfd09e419da2de408U, 0xefe4d60dfd0b13faU,
  0xe8e5e7f8fff101fcU, 0x2fd070bebec1b0bU, 0x100a1adafdebf50bU, 0x1f90dd40bf7fffbU,
  0xefecd80f090dfc19U, 0x8fde923f9090afbU, 0x9010708040fdffcU, 0xf80cfb06f6090706U,
  0xdce5eeeafdedf809U, 0x917012312dc05edU, 0x18f10feb091c17efU, 0x6f318f3040505d8U,
  0xd7ebfb1706fe06f3U, 0xfedbe607f4f1daf3U, 0x3e906e1f9ec0bc5U, 0xe904fbf0da19f4ceU,
  0x17e50a0502faf9edU, 0xe1f4082aeee8ea12U, 0xadc1a06db1611e7U, 0xf70208dff0db070dU,
  0xf4f80416fc01eeecU, 0xf9ff160dfafddff6U, 0x1eeefee6e70ff3e6U, 0xf50ce7faed02e4ccU,
  0xff605ed12060f09U, 0xdff40a1cd1f4ee10U, 0xfce3fffaf5061800U, 0xfbf904e7eed7fbefU,
  0xec180707e0e6f303U, 0xf9090906f012d7ecU, 0x1b0c0606dc160fe2U, 0xf9f8f610f4f6e6cbU,
  0xff50722ed08f2f3U, 0xed0a05f4d2d0fbf2U, 0xef060eebcb07f3f7U, 0xcdec0dd7dbfae0ffU,
  0xd609f9f6f3ff0f0aU, 0xf5ecf2dcd7dbd2f2U, 0xdf3f1ecd41101e5U, 0x12d7edfa000609c1U,
  0x5d7ddcbf424fa0dU, 0xe40209f7c8eafcebU, 0x9dc15db1316f6f1U, 0xea0fdefceb05d2d7U,
  0xeaf2cffbe6e8eafaU, 0xf6e0dcdbebf1e3f6U, 0xdfeddf8f00ce7f5U, 0xe6f0fef3f8ddf7d4U,
  0xead7e8eafbfeeefeU, 0xfcf9020eddd4f8f8U, 0xfee13120216030dU, 0x80bfbffecfdd8edU,
  0xd8f109f60ded0b0fU, 0x1a0ee2eefb1209ecU, 0xf814f207ee14ebffU, 0x6ef00fe190500f7U,
  0xe4e4d5ea13ece11eU, 0xea021b03f800011cU, 0x15eb24e4f70711faU, 0x7fa18d90eedfa0cU,
  0x7cf1102ed11f7efU, 0xeaf8fdf4fbfafbdeU, 0xfeddfe03f8ffe405U, 0xecef1e06fa0e00d5U,
  0xf811fd02291c0211U, 0xeffc1010df08fc0fU, 0xc10104eb271316U, 0x11ec20f400d4f6faU,
  0x9fd2104f5022103U, 0xf407fb190223e9f8U, 0x305f207cefdf4eeU, 0x13fdfef400dc08e4U,
  0xef12fd17050bd802U, 0xc904fd10c724e31eU, 0xe02fdbecf406f3feU, 0xf5e428f4f3ecf927U,
  0xe52cfddfdbd81cdfU, 0x291accdfd2f3ea05U, 0xf00bdc00f9fbe1efU, 0xf1e1ffe1e7eb1410U,
  0xb70ce913d318e5d6U, 0xfbe5e1e9fe07ef04U, 0xe0a02edfe3bf9e1U, 0x27ea09df0bdbe638U,
  0xe327e5cbeb1104e2U, 0x3f01cbc30c0b022bU, 0xfafdc4fff01be0e4U, 0x51f1ac6080201efU,
  0xcc0ae3fffb1fe018U, 0x4fff124e9fc050bU, 0xf20803eddf22ff20U, 0xe9fae511f4f0f911U,
  0xe5fefdeb0201faf8U, 0xe1e721f6faf7f00eU, 0xafd04f90108f1e1U, 0x1cf309141604d9d9U,
  0xf1fbf8f4ea070c1eU, 0xaf7e918f2f8f518U, 0xbdde4d7f206101bU, 0xf2eee30c00cdedf7U,
  0xf9da1aef15f20bf1U, 0xf5d823fdf511e7e1U, 0x8eef9fae4eefbc7U, 0xfafb251d07d5f8e3U,
  0xdef3d0300e0ef3ebU, 0x309f50fd1fee8faU, 0xfeb060ecdfd2029U, 0xdff06f607dcef0dU,
  0xe4dbf901f60204e5U, 0xfbf41803311e0e00U, 0x7e3fd17eb1100eeU, 0xef1811f407f8f9e0U,
  0x15ff0a23fb32f008U, 0xdd061007fee5f80eU, 0xa01f1eee5300cceU, 0xc001ed0f9c6040eU,
  0x193ef300fa0a27feU, 0x251f05dfee031de9U, 0xe0d050df420f7fdU, 0x9fd26e60ce11918U,
  0xd41ef71eeb14f51fU, 0xec08e105eb0d1119U, 0xc6e0deefeff5d1ecU, 0xf3e7e7f1c2f2cf01U,
  0xf9f0c7edeedde9d1U, 0xcffaf8e4eb0324e4U, 0xf9d1e1e7eddb03c0U, 0xe2f5f6f2dfd8f814U,
  0xc31ed1f3cef822d8U, 0xece1e4f2fefc08efU, 0xe7bae003271000faU, 0x1a0202f81fdc1cfbU,
  0xfddad301fff2dd00U, 0xf3f0dcd9f1fc09d3U, 0xd02f9ee0cffe507U, 0xe63711c2e7e7e8faU,
  0xe90fd842d01b0decU, 0xecc2ea17d701e20eU, 0xf22238010537ff13U, 0xd6feecec25fcf203U,
  0xecf21c1d10f21517U, 0xeaf417fa10e7e809U, 0x51bf00d010fe80dU, 0xe6feff10e32912f8U,
  0xf0d6cadde927e9eeU, 0x10b0f050209f92eU, 0xeafc0e080ef2f509U, 0xe7eae00808ea111eU,
  0xf62ff2f2030c0804U, 0x10f81f02151afdfcU, 0xf10ce9fbdbf42725U, 0xf303f809070af9e3U,
  0x14f7f1d90c18f4edU, 0x100900fb0f18fdfcU, 0xebfae7fbf7e705e1U, 0x60829f91cf30f16U,
  0x1b0512f12317f8fbU, 0x5fae6fe32ebe708U, 0x3ea0d10f81adc11U, 0xf4ff19f9100cf2fdU,
  0xe106ee210b11effbU, 0xbf7d5eb01fa0efcU, 0x71000f7caf2ff1eU, 0xa10ffcaf1c50af4U,
  0x2505272705fc221eU, 0xe20e708f80023e7U, 0x23000f14f817f802U, 0x17f62a21fd18f015U,
  0xee1aef10021ef00cU, 0xe1e702f1f6f60df0U, 0xd106fdcfe903ebffU, 0xfee61a0817eed7eaU,
  0xf3e9c4e5eed8d7daU, 0xf711ede1d62102ecU, 0xe1dfd4ee09f4ffd5U, 0xd7fbf1bce3cfd91dU,
  0xd0fddd18e20904c1U, 0xf6d0edf8f6eadafbU, 0xefead7e834281aeaU, 0x351700f00cd21406U,
  0xfd0df2f4f7f2d8e1U, 0xd04d4dceaf014fbU, 0x12dff6faffebeed8U, 0xf711ffcff3d0bff6U,
  0xc1fffb18ce03ee0dU, 0xdecfee14f2fd0e17U, 0x22ed0ff6e0201605U, 0x2e0e1b1e09f802f3U,
  0xe2e7090ef70cd913U, 0xe4dc2011040613feU, 0x15f0f81bfaf7fadcU, 0xffeffc09f9fd06f7U,
  0x4e0f9161cff0b15U, 0xe0f2081dffcb10feU, 0x1ece0e17d201250bU, 0xf0dcde0209f313daU,
  0xf5cc0c0d1c130225U, 0xdf070b30ff080cc4U, 0x1fe1050c0aff0cebU, 0x18e71403f7ef040cU,
  0x1921041113ee0302U, 0xf00010e910f3e4f2U, 0xcc090eeee2e7dae0U, 0xf8fe0c0202ca0a0dU,
  0xa110d00fd0bf306U, 0xf02ec12e809f2fbU, 0xf6f9ef1a0f30eb18U, 0x90bf9fa07ef1a06U,
  0xee0c05fa12f203faU, 0xc7f0e7dff5f3e4ffU, 0xf0fbf211d1f401fcU, 0x10fdffe6d4f5f60cU,
  0x1b0d03e4120604ffU, 0xd913fc0b04f50df2U, 0x102cef161023f028U, 0xae6ff0df3ff0f08U,
  0xf20700f305e3dc12U, 0xca0afe0300181111U, 0xd5ebdbe9eff9d9ebU, 0xfe0afefc07e9e409U,
  0x1efcf0ead6e602c4U, 0x13f3ccf0eef7fd04U, 0xdbf712cf24dfd4dfU, 0xd0f806c9d60def02U,
  0xc408f126e619f3d0U, 0xe7e4f2f3fbf005eaU, 0xe521bdedef0afbf8U, 0xb0204f708d70b11U,
  0xfdf2fad1eae701c7U, 0xfbf1f9060edeef06U, 0xea14f5f5ffe102f9U, 0xe8fbfac8c70cefd5U,
  0xcdf9f610e3f2f4efU, 0xd307d80bd80bff0aU, 0xf3e9f8f8ee3723e9U, 0x1104ffd71afb08fdU,
  0x17e2fe041542e21fU, 0xf5e4f30ff8f803d4U, 0x21a080f08f7e3edU, 0x20121af61a06fe04U,
  0xfbf9d70f171d0319U, 0x907cb1909f1fdffU, 0xffd8411bdcfff71bU, 0xdfefc721e500fef0U,
  0xf0fd242e18e92140U, 0xdce11e3b310ceef5U, 0xed1c0c1df90e17f6U, 0xec1e839f008260dU,
  0xf0f2f9e220040e2fU, 0xf00e09ecff09fdf6U, 0xec0cda05f3d8c91bU, 0xe0faf737f3fd140aU,
  0x141ff106f91201d8U, 0x200301e00a230207U, 0xef130b15040d0cefU, 0xed1eec12fafde309U,
  0xf60cf712edf2ebfaU, 0x14e5eddf1508f8ebU, 0xd906f21bf4e8f40fU, 0xffff91eeeed0309U,
  0xf1c24101c1916f2U, 0xff803072dedfc38U, 0xf6fc13d91efe061dU, 0x40503eb0b0aedf6U,
  0xf8fefa00f61cfce0U, 0xe51309d614fd01dbU, 0xf1f4ebf4dfeee009U, 0xeee013ecdbc2df06U,
  0x8fedcd8dfd004efU, 0xf1ff9d9d70d1bf9U, 0xd0ded9de36ec10caU, 0xdcdef401e8eed224U,
  0xda19f411c70df5d3U, 0xdccae7ee08ece4f8U, 0xebc4dd0d09e1ebU, 0xdcf5e20ae8e4e6e2U,
  0xf3f7e702eff605e1U, 0xf806f1df150007f2U, 0xccf6d2f51ffc02e2U, 0x12f1f4f3f916eb00U,
  0xc70bebfff313ed0cU, 0xf0dafe010af403f6U, 0xed00f3eee03ae9fdU, 0x3ef09feec16defdU,
  0xf10708f905231b25U, 0x251cefeef629fa20U, 0xfae4ea071e0ddaeaU, 0xfeff2ef514fe1606U,
  0xbf06ea190ceddfffU, 0x5ecd8f8e4f5feedU, 0xe5e1fdddf9e10530U, 0xdae1eed8fd0c08ebU,
  0xe52408f908fc1d0dU, 0xf120304eee5ec08U, 0xf2edd408ef3416fbU, 0x1ff1df270d150ef4U,
  0xf80ce2d9281c0d2aU, 0xe525fdfbe7faf0f5U, 0xe1f1e115faeee409U, 0xf3e2fd0e1fe6e9f6U,
  0xeaee11ddf8faedeeU, 0xb0408e4fcf1d8efU, 0xfb02e3f7110ff0fdU, 0xe50305f0faf5011aU,
  0xde35e5fee8111ac4U, 0xeaf91cedeb0ffae1U, 0xfa19fa290cdadb2cU, 0xe4e91af1fef8ead9U,
  0xe7fb0ffaf6db11f7U, 0x18ec1ef9cdf20706U, 0xdceeee0f1cfbf3f9U, 0xdde3de1dea13f309U,
  0xc13f9f7f5010e14U, 0x110ee9fa0b0004e6U, 0xdeeadbdeece9d8fbU, 0xe7deefd7d605f1ffU,
  0xf404c7dfe5c8e5ebU, 0xe311cee3ce1d16ebU, 0xe3e8e0e533e700c2U, 0xc9e6edd5ebe7d109U,
  0xd528fbe5de2905d1U, 0xd4e3e7e5eff4d8eaU, 0x1ce0e0dfe702efe8U, 0x25dae0e803e3fbf8U,
  0x11eac000d2e7e8d4U, 0xf511cddbdb2d19eaU, 0xe8f5eee60bf5cfcdU, 0xe6f917bfe0d2e70eU,
  0xd00ee501dff90df0U, 0xcfcfd6e90ff2e8f9U, 0xfef6fe101507fb0fU, 0x8fde40c0dc917f4U,
  0x22f5ff00e322e619U, 0xdb20f1edf30807fcU, 0x17fb20e5f7080e00U, 0x102f0bfb00ef0d0eU,
  0xb021618f2f3fe12U, 0xeae0d201f3fcdef1U, 0x9ed00182edaf21aU, 0xfeffe5f5f31201f9U,
  0xe18120206f9f204U, 0x61242fc0de81911U, 0xe1dcd8f7f01a02f8U, 0x22edf123151b130cU,
  0x2405f8dd1b1b2109U, 0x30f2e5f20201f104U, 0xe135ffe72beafa06U, 0x7dc03ed09e4edfcU,
  0x150ceceeeb0115dfU, 0xfe0920e9fff71027U, 0xea15ea1a07f1e1edU, 0x3f30ffb00fc030fU,
  0xfb0bf512d5041aeaU, 0xfbcdeff122eefee2U, 0xdf14e6ff06d0f8ebU, 0xedddbf916fb0902U,
  0xed1dfee7e0ea01f8U, 0x1afde2eefef91c11U, 0xf906edfc29de0b01U, 0x201ecf7f2f60517U,
  0x222100cfb2505e0U, 0x2610f9cb1ff5f6e6U, 0xfcf610ef2eee0bfdU, 0x40de3e412031bf9U,
  0xe8ce15fcf5f4dbdfU, 0xc8ff26f402df1dfcU, 0xf3fef7f5e0d613ddU, 0xec1c02d91bee0ff1U,
  0xfb1b122ff8e9130aU, 0xf2151010ef00e7f4U, 0x2f4dd093014fed6U, 0xdff24f429f6f4f8U,
  0xf31af4ef0205dbfaU, 0xf40aefe01902fbf6U, 0xf40b0413ee050718U, 0xfcf003e8fdf305f7U,
  0xf0fafb2dfc1bf1f3U, 0xf90f09fd072508feU, 0xfe081df4000809efU, 0xdfc00ff08f011ecU,
  0x8f7dc0703e9d7edU, 0x231010021f0c080dU, 0x2cdbfd0009f0f2fdU, 0x80b03e5fd00f31cU,
  0x190c0bf0f2f408f0U, 0x101f092508181bffU, 0x2adbeeeff40f14fcU, 0x110f30506fd10cfU,
  0x18f2fa000811bfffU, 0xf60c050007040df1U, 0xff0119030beafce5U, 0xd8251708fef7d2f8U,
  0x201c0548edf011f9U, 0xfef91208e7ecfbfbU, 0xfff1100df20a1603U, 0x14f5f2d5e6feeacbU,
  0xf3e3fb230d0ce0faU, 0xccfb290e04fce0d5U, 0xde804f9d1d1f5e9U, 0x7052614f7f7efe2U,
  0xde71108daf6010cU, 0xefcf1410e3eee507U, 0x1e60ee322030f12U, 0xf7e6d3d5e5f306cdU,
  0xf4e9eb19ef0cf3e8U, 0xef04110a08f2fcedU, 0x140702e8fef33af1U, 0xf4ecde07fcebf1f5U,
  0xf80009ede4f810f7U, 0xf0f6fcf7fafad511U, 0x20e1100f80bf203U, 0xe600f4faf7e8f8d9U,
  0xebf2f6df110feeeeU, 0xf0141ae3e7fc050eU, 0xfee8d9f8e0d00ce4U, 0xe8fde41ee132f1e3U,
  0x629f4f2e7dc2001U, 0x1cf40716e00d1ce3U, 0xdec03f72710150fU, 0xec10fb0e1805faebU,
  0x8e3060f0f08f7ffU, 0x8eeeb05fe1112f5U, 0xdf9f6d8fce90906U, 0xf8e8e7f509e8ff05U,
  0xebfb011307dedae6U, 0xf3f60e1d17ecf907U, 0x1a0f0bf7d1090cd6U, 0xfc13f3f703e7faffU,
  0xeef1005180202faU, 0xec19d9f108201c03U, 0x140e07fc0e02d903U, 0xf2fefff8fde5fd1eU,
  0x180705fc00fde7fcU, 0xff200429f3fff5fdU, 0xf6d40c00190f0fdfU, 0x22080dfe100b0d0cU,
  0x25fe0c131117e2f6U, 0x4fcf00c242425f2U, 0x80b1afdf1f9ff1bU, 0x130714f706e9f611U,
  0x142df3001314f416U, 0xed00202bf1f8fd1dU, 0x23d019130e18f808U, 0xf4fff8e3000b07fbU,
  0xf4ec181d0b12e52bU, 0xedfb1e052012fc06U, 0xfc10181012feefe7U, 0x16fbee0b10e911e8U,
  0xfff6f9f51af1f314U, 0xf81412291eec0029U, 0x1f030dfdffe508f7U, 0xdbf8daf2ecfe0cebU,
  0xf5f4fe0407f2100eU, 0xfc060c1fecffeaffU, 0x50205f80bfb22f8U, 0xeff0db3905e70419U,
  0x23df19dbf8e9220cU, 0x11f70ff603cce3fbU, 0xf6e4e103130c01e3U, 0x3efffef0c1202f6U,
  0x6e7e90ddd0305e4U, 0x50002ced506d9ddU, 0xe6f1eabfeff5e1U, 0xcff303f7e6f1dcd4U,
  0xf60fee04efeee601U, 0xfee20006d4d902eeU, 0x1aebf5f02dfdfc02U, 0xa14eee52e0efee7U,
  0x20f00faeffdfcd6U, 0x1703f2f5ebfdfddeU, 0xfd0308e4e1d5fff6U, 0xfa1212ecfe04feeeU,
  0xdf05ea200ddbd606U, 0x7f6e703dd1931fbU, 0xfff80b1b06fb2205U, 0xfc0d0c01e8f513fdU,
  0xfceef61d221c0dedU, 0x5fffe3310e9f60bU, 0x1dfb13ffed0007f4U, 0xef1005f706fc0c09U,
  0xfee002efeaf0fc05U, 0x4081912e9140a14U, 0xdf63c071408242aU, 0xfe130f1f13fbfb06U,
  0x162808071a1a0111U, 0x6121117f709f604U, 0x6160e11da0df412U, 0x15362c09340512e8U,
  0x17151715e8f001feU, 0x5f8262ce10dfff6U, 0x8e717001311f8f1U, 0xe8fa05e909101111U,
  0xa0427fa09ff11U, 0xaf9071f1519f30dU, 0xd817f400dc20f1fdU, 0xcf1effa11fe36e4U,
  0xedee07ef021b231aU, 0xf9282202dc1a100eU, 0x1bf211010606fa10U, 0xd7ebfaf1da05f009U,
  0xecf003090709ddfeU, 0xed04130406dbe4eaU, 0xf5f5dc0df3fc09f2U, 0x9f9e021fcecfe06U,
  0x4e3fff304fa131bU, 0x8f2eb0602d8faedU, 0xe61dfb010d00f9f7U, 0x1ff1eff201fc1415U,
  0x1307e4faf40bf7f0U, 0x9f8f8ef0ffe20eeU, 0xd803eee8d9e80d07U, 0xf61733101901f9deU,
  0xf91ffa2b0c1aebfdU, 0xd4eef20cdaf3e6ecU, 0x10e1fd05f8f0f5dfU, 0xe317fe0ff4fd06f0U,
  0x70e1819120306f8U, 0xd50af3ebf4d6f7f9U, 0xeeff0202fb020af0U, 0xf7ee06130df720d9U,
  0x5f0e10202e0f707U, 0x1c12f8eef203dbffU, 0xf4fe0d22f70bfef8U, 0xe6eb0dfdf90614ceU,
  0x51ded1817052e15U, 0xf8f305233b260afdU, 0x1012fe20f514f309U, 0xce9ffe11df922eaU,
  0xf5efdeee00050513U, 0xf427d810f23a28f5U, 0x10524041df1f30eU, 0xd10fee30efc0f03U,
  0xfc17180c15ef0616U, 0x13f90c0a1910170aU, 0x90c090bd339f027U, 0x120c22fe0d0606edU,
  0x1a230224251ae90bU, 0xf51b13def51e03ffU, 0xc28100d0df8e204U, 0xe9f4fcfd0811f302U,
  0x111bd8f5ebf32c05U, 0x2104191606fa0007U, 0x10acfe8ea072205U, 0xf1eadc00d31f1decU,
  0xbe205fc1a1506eeU, 0xe62411f3f7121aeaU, 0xfa09110f1c22ee04U, 0xe7eef3f4f202e301U,
  0xe5ecde0af7e615feU, 0x509f2e51209080cU, 0xf315fc1bdc08e21bU, 0x71302000e2bfe0bU,
  0xfcfcf2ffeb050a0bU, 0x2014f9e2d2090206U, 0xf3eb05081d0a0502U, 0x2115fbe1051027ffU,
  0x1f00fe12ed10f4ecU, 0xfbe60e1007ebdee2U, 0x7f10be8130a03U, 0xe0a061a0f0f0fd5U,
  0xfc140532fff21301U, 0xe2fde500c3080ee5U, 0x4ea00032302112cU, 0xe20207e8fe020801U,
  0xfef7ff1a27f9142aU, 0x2300041cfb05U, 0xea040625f0132cfaU, 0xe0a0a15040519e6U,
  0x1a0c07f9f5ce0003U, 0xe40108dbd4f1e0e0U, 0xdefdd60af8fddf03U, 0xd8dbef182f0ddffbU,
  0xfc12e5eafbe00be8U, 0xf4ed1bff15e8e71eU, 0xe605eafbe82f011bU, 0xfcfbf616fff9fc05U,
  0x15f3eee4ece81303U, 0xff12f1ec060c12f2U, 0xd214e5061dddf709U, 0xbe4fd1b15eb0a06U,
  0xf020d1f1f113e5fdU, 0x20f4e0ef1afe1303U, 0xe106f302d9faee1eU, 0xff1af6f7f0fd08e6U,
  0x9080310d3fafff8U, 0x10fde0d50d0320dbU, 0x215051428d7e8faU, 0xf40523220106e7fdU,
  0xf7e401f3f8e502d0U, 0xf6d807f2fdefd720U, 0xf0fd1b010a02ebf2U, 0xf10beff0fc23f601U,
  0x1e00ea07eee8fdf2U, 0x1303ffda15f9fcdbU, 0xfdd61002e2f30122U, 0xfa15f816f0edf0eeU,
  0xe3e9e5fffbd9e7f1U, 0x6fefee7e50af0e9U, 0xf9e8ebecdde723c8U, 0xf300e9e1dbfbce1eU,
  0x1aeb06fff3f500f4U, 0xfafa02f410ec00faU, 0x1ec2cf3fcf7f80bU, 0xfbfa10d8050700e8U,
  0x14110711fcfc0e05U, 0xf0dc01f71e0deefaU, 0xef211011de33f20bU, 0x2cf2132113f019ffU,
  0x230dee0d071df813U, 0x110dfafee60dfe15U, 0x3da020eeff10b27U, 0xd6f8f9d6091702eeU,
  0xf0e52210f7f0081bU, 0xd3df1206140ee607U, 0xf4081327e21a1b0cU, 0x1feaf6180ef912e0U,
  0xadef3ea1df00a17U, 0xb0ce503010dfbf0U, 0xe4daf2001ce4dd0dU, 0xf9f4da1af50dddc2U,
  0xf5ebfb04effaed0aU, 0xf0f21ded1eef01feU, 0xedf3fbf5dc0315f3U, 0xf8f1dc0bf8f32100U,
  0xf9e404f50ad9fdf1U, 0xfc2010c010e503e8U, 0xf8e8f7fd22d6e9f5U, 0xf5020e0bff0503c7U,
  0xce90e010f0d1b08U, 0x1308ec031111fb08U, 0xd21214fdd80e2afbU, 0xf80a171d1d03071eU,
  0xf811fdfb1aef1405U, 0xdb04ece3ee0b19ecU, 0x4f1f7f80c07d7e7U, 0x5f51cff0607f0faU,
  0xfb1213181903e60cU, 0x606fef7f802ee03U, 0xfdfaf00a280aeae7U, 0xf4cff5fe0322faf8U,
  0xf3ecf4060a2a11f1U, 0x1404d9f7180e1fefU, 0xfff1fa1ef709f7f2U, 0x11f102eee4f60df3U,
  0xf9f8f8f009f50bf8U, 0x11e0ae7eef804fbU, 0xfa03dfedf9e7f202U, 0x1f714fffa11de2fU,
  0xf0c091111fc00f9U, 0xef60816191de6ffU, 0xe5000707ebf7f804U, 0xf9fc02e3181708f5U,
  0xed0319fdfae8ecfcU, 0x315ccee0b11f510U, 0x310f5fbde15df03U, 0x10bf0ec16effee7U,
  0xed11f20bfc10e1ffU, 0xf6fc15f403fa20fbU, 0xfc01fdf702ed071bU, 0xede007f3e2f4f6f2U,
  0xf30af4ea15cef9e7U, 0x218e1cf13f20133U, 0xeafeeff7eff1e3fcU, 0xeae7e207f1f606ecU,
  0xe6e7ece0fcf60fe7U, 0x1070a04010603f7U, 0xdf17f4fefd0bf7edU, 0x1bf410dff8cff60cU,
  0xe1204f5f3eb15dfU, 0xa16d5f708ebfd11U, 0xeafd08fae307f121U, 0xf0bfce1f4d20fffU,
  0xd80adcf4f5f1f2eeU, 0xe80cd4ea1efa08ecU, 0xe127f928e2e6f00eU, 0xe0fef4eb05fdea12U,
  0xf70814ec04dd21f6U, 0x1109140e1326041eU, 0xf700fefbf10bfbfcU, 0xdee4fe0a12181bdbU,
  0x4fd25deff0018e7U, 0x2a01fac0070022dfU, 0xdce0fefaf61904f7U, 0xf404fcf2ebf600U,
  0x8f612ea06deedd1U, 0xcf40ef9e2e1f2f0U, 0x11e2f7ebc9fd0a03U, 0xfe000c12f4ffe7c5U,
  0xf5080413d0041e05U, 0xfcd6f6f6f3f117fcU, 0xf2f8fdec12faf0edU, 0xea0dfce005ff06f7U,
  0xf4ffe9f9e3e7dcf7U, 0xfe00e6e0f0fbecf9U, 0xfff8effef3fcf608U, 0x15fcf1fbe4e1d0U,
  0x3e2e015defee8f5U, 0x22faeb02fbf50cffU, 0x428fe030200ff0bU, 0xfe06f0e9ff07fbe3U,
  0x12fbfa1a0612f508U, 0x2e113230ceb020eU, 0x901f91c0fdf0c14U, 0xf3fbe2fcf00a070dU,
  0x1df9ffeaeefc1bebU, 0x32ff0210fb0a2106U, 0x19df1ffec8f10f0dU, 0x181110e9ef05edc6U,
  0x14e1e8290a0dd30aU, 0xe6f2dc1108fbf4ffU, 0x1def1521effddcf5U, 0xfff9ecd8f7f3c903U,
  0x9ea2006edea2301U, 0x7e818f203e1f7f1U, 0xfcec22fff4fa2503U, 0x207d6f0e2cfe9baU,
  0x5d7ea27f3fbe605U, 0x4f90d01f0f9f6ddU, 0x17e9efe914c23204U, 0xe3df0c04dcd301e8U,
  0x171a260ce6ed1bf6U, 0xf2e80bfc02d9e5f5U, 0x7eafee4ffe1f116U, 0xfae9f31af405f304U,
  0xfe15d0eff9eaefefU, 0xf3fcf7fb0bf209fdU, 0xe1f5e70fedf4e7e2U, 0xf6dafee9ed14e7e3U,
  0xfe040f0800dcfeebU, 0xfae8fadeee19fbe8U, 0xfc1415fbdff7081eU, 0x5ff09f809f0e204U,
  0x18f1f4f0f30af4f5U, 0xf4ea18e9e920ea04U, 0x1bf5f10ce8fb10f1U, 0xe418fb0605f2eee3U,
  0xa1502f5f5f41008U, 0xf8ee0af6f9dfeaf7U, 0xec0a0ad8f6221208U, 0xf3f9f6f7ec0afd0bU,
  0xeaf0fd15fafb1d01U, 0x16e3f51df5e8ebf9U, 0xfee1eed2cf022be4U, 0xfc04fe02dee8f6daU,
  0x19e00cf707f40203U, 0xef10309efc9ebfdU, 0x17fa050a19020a04U, 0x1bfc0403fa2003f9U,
  0xaf1fa0811161803U, 0xffff030927d31bf2U, 0x6f8e613f3efee02U, 0xf3fcecf806f6f7f1U,
  0x8fde8020aea1505U, 0x91210f8fd040403U, 0xf6fe0312f8110cfcU, 0x51e1be816f62620U,
  0x31280b15331efb26U, 0xaf9f00210c401f8U, 0x1d261416d816ea1eU, 0x200af30028f637faU,
  0xd517e51e1b26fe1bU, 0xdb180af7f2240f00U, 0x363424e3de030dU, 0xedff1ec7e8290702U,
  0xf50f1b1328ff2a04U, 0x4e5fe241aeddf11U, 0x5100507ed270219U, 0x20ebde051c061bd0U,
  0x1edf19ce21190021U, 0x1907f0fb0b1c0bU, 0xd90cd1f1e111fbfcU, 0xbeee2ea131011ecU,
  0xf9e5f2e4ed0be6dcU, 0xe4f309e107fbe8d8U, 0x7f3fef6e710f4e4U, 0xf90c07edfcd5efe0U,
  0xf7fa080eeae1e7bfU, 0xfc0615f9d4e3f60cU, 0x5f6ebe3f30e0ef2U, 0xe60efcd819e10109U,
  0x5fa16040407fd17U, 0x4f1f81d16d6f8f1U, 0x1100fd07defae2f7U, 0xe8f2fd0614d9fcdbU,
  0x12f002f801fdc207U, 0xe9f4e9f5e9f1e8fcU, 0x4fffdfdf20cf225U, 0xcced0206050ef908U,
  0xf3ff001004e80d1fU, 0x5d3140a1708e905U, 0xf70f12fdd51ffd0aU, 0xf1fae31ef018e0dcU,
  0x11d71ad7ee0e15f6U, 0xff201606d8180e0aU, 0x12e3271118fdfafdU, 0xf81cd4ea1120f6dbU,
  0x1ce70ffae70f0e0eU, 0xed070c1ff0d912f3U, 0x8e51e13d5fa07efU, 0xef0c0108e4f9f2f3U,
  0x1105f1fdfbe305fdU, 0xef01608f4ef0bfbU, 0x60debf41400ec07U, 0xf107ff020105fb01U,
  0xe6061befea121ff9U, 0x5fbf80c02d8d1f1U, 0xef00def7c304e601U, 0x2f6fd1110f218e9U,
  0x2e7d6fe07f3dff6U, 0xafeecff18f5f0e9U, 0xe223dee802e2ec14U, 0xfae927001e0af632U,
  0xfb22ead9f7f211f9U, 0x18defcf0f5d9f315U, 0xf90e010ed803fa10U, 0x602f7f00e0005faU,
  0xf0e3ecf6ed01f5eeU, 0xd1dd8f0f1fc0bf3U, 0xee18ec081dfaf5ecU, 0xe7daf61126f8f7U,
  0x1601cbd3edfaf0cdU, 0xe911e5e4f8eef309U, 0xf8fef802f4ee000fU, 0xee00f8e4e7c8feddU,
  0xedfae0ebe7f2e9cfU, 0x13f902150024010cU, 0xf170309e00807faU, 0x15fc0ad21b0e15feU,
  0x6d9e8f0f8f1ea18U, 0x10a25f914f1040bU, 0x6ebf3f3ee2107f5U, 0x90cf0f11b030400U,
  0xfff9e6fd020c0705U, 0x91ef116f50d1af4U, 0x18f41ffe13181819U, 0xfaefeefce920050eU,
  0x15f1f804eef9ebf0U, 0xf5ffeef7ddd6e9f0U, 0x15fe1cfcd4e9e8e5U, 0xf70304f7fb1707cdU,
  0x10f8fe07f100e6eeU, 0xee503fafefef2f9U, 0x113f61fe5f3fa10U, 0xd5fa0315ea20fccfU,
  0xfce40206fae3111eU, 0x1be90e0af2e0fd10U, 0xcfff9ffe5fce209U, 0xad8c112fe2dee08U,
  0x208eedbfef40f00U, 0x2f150f0f1cfb15feU, 0xf6f1f108eefa0218U, 0x8e702f5e006f2ebU,
  0x4f3e503d6050d26U, 0xfaeef8fcf708fafcU, 0xf5edfafb1bddcad0U, 0xfff20a08f2160e18U,
  0x7f2d9fefaf2f5fcU, 0xf704e8f106e7f0ffU, 0xf7fbfbfe0aeee902U, 0xf6c600092306f8f0U,
  0xfae9ececcff4ffc8U, 0xf1f306fffafcf503U, 0xd1e3ecd3f3d912f8U, 0xd310d109cb14fbf0U,
  0x1eadc0cf1f31dd9U, 0x1207d5e519080f03U, 0xe328e8e719f4ecc3U, 0x7f116fc0824f510U,
  0xf811edf5f0f2dbf7U, 0xf6f5e0feefe8f01aU, 0xf21101e803d2e221U, 0xde0810c617fc00edU,
  0xf1f4e9f6e521fdddU, 0x2519d6010213fa00U, 0xeed2e0f61adefefaU, 0x11f924f0fe18f305U,
  0x150807d60cf9ea0dU, 0xecfaedffd101f3U, 0xf807f8f8dc11ff12U, 0x190206e5ef0f01f3U,
  0xf4f9fc19fc0200f4U, 0xaf0f5d8010e1ef0U, 0x3e3e8fd02001200U, 0xd15feccfef628f2U,
  0x21031e191a0ed617U, 0xfafef80a2af816d7U, 0xf20b1707ed0bcb21U, 0x171ee70024edeefaU,
  0x2c03faeb00f6fe07U, 0x1ff0debde0b0cedU, 0x11071731f6ee0915U, 0xf808e6f1f90400e9U,
  0x1cea190202fd0409U, 0xf912232eeec8090cU, 0x5fdf2f518090707U, 0xf2f1f5121d051819U,
  0x801e40fe50bfaU, 0xf6fa260dfff3efefU, 0xec06e101e0eeeaecU, 0x6fef90ffd0ffa21U,
  0x1d0fe5e012f4U, 0xf6f3101804130810U, 0xefede9e208040806U, 0xeb00f412ec131307U,
  0x15f307faf7f239e2U, 0x200d8d4131cfd00U, 0xdc13cefc20cec1f5U, 0xfdc9e9121822dff2U,
  0x3e9d3dfbbdbe7c3U, 0xf9f6eef2cdd1da09U, 0xd8dde4e6f4df0aecU, 0xd5fef6fbca1ee3ecU,
  0xfcd6d001c5ec01cbU, 0x17f1c3db04ea0effU, 0xc5f3d1cd2de8d5f3U, 0x5e7ed0c192bf20dU,
  0xec25c4eecbf203c2U, 0x17d6c4c4eddff813U, 0xcff7dfe1e1df0919U, 0xde12f1ceeee1cbd1U,
  0xdded910c1ece2cfU, 0x11f0d1da0a0a1df0U, 0xdf02dbdb13d0eceeU, 0x1c3fa192a04022cU,
  0x90ad6f9f41905eeU, 0xcbdaed08fadf08U, 0xf31cee0bd31bf510U, 0xf3fe08f718e714f5U,
  0xede1e103f2e9e7f9U, 0xd01e3cc16ff1cddU, 0xed07edf60ef609e1U, 0xb0f23ef19091102U,
  0xfa07e011f328d404U, 0xdf5eed108f501fcU, 0xf416fe10db20b80eU, 0x211510ef0edc0af1U,
  0xf4f8f80403f8e01dU, 0x7fee2f40de720fdU, 0xf5040204fff7fcf8U, 0x2f306f70505f303U,
  0xfcf7fc08f701fbf5U, 0x4020609f7fefff4U, 0xf4fefbf5fd05fcf8U, 0xfbfd010af8f7f704U,
  0xf9f309f401f4f306U, 0xfd0bfafffafbfd06U, 0x20af5f904fafdfaU, 0x302f5f6f305fa0cU,
  0xaff0dfc0209fb0aU, 0xfdfb0804f4fdffU, 0x901f7fa0af4060aU, 0xf707f709f40408feU,
  0x9fef901fef3f3fcU, 0xfefbf2f3f2fcf2f5U, 0xfb0202f80903f609U, 0xf8ff05ff07040902U,
  0xfa01f8010807fffdU, 0x400fe030cf802f4U, 0x7010403fdfbfbf6U, 0xfcfff20702fdU,
  0xfaf0f904fbfe0302U, 0x90205faf7fcf701U, 0xf3fc09fc0a0003fbU, 0xfef6ff06f2f901feU,
  0xfbfafaee07040008U, 0xfa07ff050705f9f5U, 0xd0808050103fcffU, 0x7f9f900f70afb06U,
  0xf707fdfff501fc06U, 0xfdfe05f40008f7f6U, 0xfefb0401f8f9f408U, 0x6fff4f80208f903U,
  0x300f3f6ff05f9f8U, 0x3010108f70809fbU, 0xf600fafaf7f80300U, 0xb030102f1fef8feU,
  0xf5fbf9f3ff090901U, 0x902fc02f70b00f1U, 0x805f8f6fdfdf9fbU, 0x300f605f508fbf6U,
  0x7fefefd04f4fb05U, 0xf707fcf605fb0cf6U, 0x4f705f4f802f908U, 0xf7fd0800fa07f704U,
  0xf50003f9f40509feU, 0xfcfff8f901fb02faU, 0xf806f60604fafff7U, 0x3f806f807f704f3U,
  0xfcf2f90cf9fffa08U, 0xfe09f5f602f3f907U, 0xf5f9fc06fff4050bU, 0x5f80af5fef70000U,
  0xf6f8fd0105000102U, 0xfdf6f808fbfff700U, 0xfb0bfc060801f1f7U, 0xf7f40709050400faU,
  0xfb0a00f608f9f908U, 0x2f5fcf800fff506U, 0xfef7f7f3fc08f707U, 0xf5f9f4fbf80203f5U,
  0x9fd09f50209fd09U, 0xf501f2060af7fefeU, 0xf9f8fbf40af704fdU, 0xf90a0600fafaf5faU,
  0x3000bf403fbfef5U, 0xf8fa0b06030b0400U, 0x4f8fb0109fdfb00U, 0xfbfefcfefb0a0406U,
  0x6ff020605f200f4U, 0xf906f505f8faf6f9U, 0xf7f3f4f6fef9fef8U, 0xf90500080004faffU,
  0xf30908fd07fbf8f4U, 0xf8fff5fe08fdf603U, 0xfef9faf90506f7f8U, 0x4fdf7f7f4fff807U,
  0xf3f8f608f5f9f6f8U, 0xff0601f4f6f7f4f6U, 0x70500f901f8f2faU, 0xfc03f5f8f80403fdU,
  0xf2fd06f8f5fbfd09U, 0xfdfdf6fd020af9f8U, 0xf7fc00ff0502f6fcU, 0xf4f50609ff07fd05U,
  0xf206f2fd06020102U, 0x3f6fcfafdf6f4f7U, 0xf709f70afff6fdfdU, 0xf7f9f3030703f6fdU,
  0x201020606fafc08U, 0xf3f7f505f6f307f5U, 0x200fcf6fd0b02fdU, 0x1f80200fafbf700U,
  0x20a00fd0401f80aU, 0xf5f3fc040bfa0afbU, 0xbf8fcf9f9fafe01U, 0x7fefa010af7f308U,
  0xf3f6060503f902f9U, 0x90202fd0af40308U, 0xf90804f304070506U, 0x7fa09f9fbf4fbfbU,
  0x4f7f803fc05fefcU, 0xf4fb09f2f600f7fbU, 0xfff9040303f4f6f8U, 0xf6f0fa0901f5fdf7U,
  0xfcf6f7ff0af404fdU, 0xfff2f9f7f4fff501U, 0x308f2fcf70202f7U, 0xf7060af30509f5fcU,
  0xf7040d0cf90207f9U, 0x1f4f6f2fdfe0808U, 0xf508f8fb07fb0503U, 0xf8fcf508060007fbU,
  0xeff7fd06080bfb01U, 0xf801f80a09fbfaf8U, 0xfd0001f70605f906U, 0xfdf7000df8faf3f9U,
  0x7f4f2f407f708f8U, 0xf604fa0808f905f6U, 0x508050709f5ff0aU, 0xff040303f60cf3fcU,
  0xf6fe0907f403f8f7U, 0x4fafd0c070af6f6U, 0xfff50803fdf900fdU, 0x9fcf2f5fef7f6fbU,
  0xfaf30708fef4faf7U, 0xfaf604f4060d09f4U, 0xf50104fa07fbfbf7U, 0xf8fc040afbf5f8f7U,
  0x8f6fdf604f502U, 0x20605f5fcfaf6f6U, 0x7f8f6fd00fc02faU, 0xf90bf2fc03f3f500U,
  0xf7f6fef7fcf909f7U, 0x2faf902f7fd04fbU, 0xf7f4fcf20606f207U, 0x9030007f8fb09ffU,
  0xf80104f8fa06fc01U, 0xfb0902f4f707fef5U, 0x3f8fdfb060504f9U, 0x101fe03090209f6U,
  0xf4fdf5f9f206f800U, 0xfbf8fe03f5060709U, 0xfaf9f2faff0807U, 0xff02fa0b0607fb08U,
  0x1050cf2f9fb0202U, 0xf5fff90c0cf8fef7U, 0xf9f8f7f7f1f7f8fdU, 0xf400fdfc0309fc05U,
  0x501fdff0306f201U, 0xfe0303030bf5f2f2U, 0xf5f5f7fb08f706ffU, 0x404fef80afff6f7U,
  0xf9f5ff070cf3fa01U, 0x2f706f401f802fbU, 0x7fc04f8f4f8f208U, 0xf50cf1fdf5f60904U,
  0x705f9fffd050302U, 0xfa0a01f60bf5fd02U, 0x1f7f708f506fefbU, 0x9f505f7fef8ff01U,
  0x3faf9fbf5faf4ffU, 0xa06f900020b08faU, 0xf3f9f2f8f304ff07U, 0xfa03fcf7f8fdfdU,
  0xaf7f3030208f3f3U, 0xf4eef609fd0504f6U, 0xfafcf302fd0506f8U, 0xf305fdfef6f4feU,
  0xfc01f2f407f1f6fdU, 0x1f7f805fff602fcU, 0xfd00ff09fbf60102U, 0x702f205fefafa01U,
  0xfd0403f60d0605f7U, 0x7f906f501fff901U, 0xf3fa0af9fdfdfafcU, 0x601050a0bf6ff04U,
  0xfcf405030100f806U, 0x30901f10bf2f6U, 0xf4f10af4f6fc04fbU, 0x9f7000600fff3ffU,
  0xfe03f70908f90808U, 0xf604fa00faf5f105U, 0xfafff6fff80701faU, 0x5050508f709fc01U,
  0xfa01f905fcfdfffbU, 0xfaf6f5fcf60b06f8U, 0xfe0002f3f8f7feffU, 0x100fe070901fef5U,
  0x403fefcfa0504U, 0xf70afffef403f807U, 0xf9f4060a01040303U, 0xc07fdf702010001U,
  0x60306f7f407fdU, 0x5fe07f3fbf3fb06U, 0x1fd01f2020afaf7U, 0xf8fafb0706ff00f7U,
  0x1fcfd01fb0c06f5U, 0xf80009ff04f8f603U, 0xf8f5f8f4f3fd0707U, 0x10603fdfa0cfb06U,
  0xf603fcf5fff3fffeU, 0xf8f8fbf90bff0505U, 0x408f80405fbfa06U, 0xf3010202f80502f9U,
  0xf305f9fa02f804ffU, 0x508f5f5fd01fbffU, 0xf503fdfef8fdf301U, 0x2fa07fff6f301f9U,
  0xfcfd02fe06f8f507U, 0xf607f908fa04fc04U, 0xff0303f9f9f30601U, 0xf708f7f2fa0003f2U,
  0xfb03f900f7effcf6U, 0xf603f9faf60807fcU, 0x8030a02ff01f704U, 0xfffb0306f606f506U,
  0xf4fb06f8f3f506feU, 0xf701f0f3fe0b07f6U, 0xfaff0609f206f707U, 0xf5f50af9f8fdf7fdU,
  0x7fefaf40701f6f4U, 0xfff9000709fbfdf6U, 0xf604fbfe0a0201f8U, 0x2040501f6000401U,
